the 77985
to 49802
of 45739
and 44645
a 43275
in 31457
that 30002
I 25748
is 23708
s 22911
, 22271
. 21589
you 19835
we 18076
ing 18057
ed 17189
And 16571
it 14982
this 14299
es 13158
on 12673
re@@ 12073
was 11614
are 11576
for 11404
s@@ 11186
e@@ 11012
have 10510
s, 10244
an 10095
s. 10091
-- 10033
y 9731
t 9656
b@@ 9530
with 9341
in@@ 9257
c@@ 9227
d@@ 9128
y@@ 8941
at 8771
al 8691
f@@ 8628
e, 8543
as 8480
-@@ 8398
e. 8322
they 8227
can 8168
de@@ 8133
a@@ 7935
g@@ 7918
be 7909
about 7858
t@@ 7801
what 7747
h@@ 7746
i@@ 7670
er 7546
p@@ 7518
one 7297
l@@ 7291
w@@ 7205
or 7193
u@@ 7109
So 7076
not 7024
all 6986
o@@ 6594
st@@ 6540
al@@ 6480
my 6350
ar@@ 6348
k@@ 6317
"@@ 6090
from 6041
r@@ 6013
ic@@ 6001
n@@ 5960
S@@ 5938
e 5888
un@@ 5878
do 5876
d 5844
our 5792
? 5731
like 5695
y, 5686
er@@ 5647
th@@ 5646
m@@ 5599
but 5582
en@@ 5494
it's 5479
so 5462
sh@@ 5355
at@@ 5350
ex@@ 5284
ly 5262
it@@ 5232
or@@ 5196
people 5170
just 5118
: 5041
on@@ 5029
ch@@ 5016
es, 4956
The 4921
y. 4887
these 4849
if 4847
se@@ 4818
very 4804
But 4802
el@@ 4772
an@@ 4753
M@@ 4674
by 4646
es. 4543
as@@ 4511
ac@@ 4473
A@@ 4419
ro@@ 4339
going 4287
out 4270
B@@ 4237
because 4181
when 4173
We 4111
more 4087
up 4079
con@@ 4057
ri@@ 4057
ag@@ 4046
had 4024
ity 4002
H@@ 3998
di@@ 3977
how 3945
to@@ 3940
their 3940
were 3884
le@@ 3878
get 3849
your 3839
ation 3826
mo@@ 3810
ad@@ 3793
would 3774
li@@ 3758
si@@ 3730
ap@@ 3723
there 3722
which 3711
ab@@ 3694
he 3652
C@@ 3652
ra@@ 3631
's 3604
think 3588
really 3575
h 3557
ate 3552
se 3551
me 3550
co@@ 3548
T@@ 3546
who 3535
ar 3495
see 3465
P@@ 3458
I'm 3418
z@@ 3415
n 3414
k 3412
ent 3410
lo@@ 3381
." 3352
m 3324
D@@ 3313
E@@ 3296
am@@ 3290
It's 3270
ec@@ 3261
c 3246
This 3241
d, 3222
ur@@ 3217
em@@ 3217
ent@@ 3212
O@@ 3200
some 3175
has 3155
ol@@ 3153
es@@ 3126
where 3111
mi@@ 3103
pro@@ 3101
them 3095
et@@ 3091
be@@ 3084
into 3072
us 3044
le 3027
us@@ 3025
sp@@ 3019
ul@@ 3004
don't 2993
ne@@ 2981
im@@ 2976
do@@ 2969
It 2954
W@@ 2951
ing, 2949
G@@ 2943
is@@ 2927
that's 2915
ter@@ 2911
then 2879
su@@ 2877
pl@@ 2870
v@@ 2869
tr@@ 2850
1@@ 2833
for@@ 2833
actually 2819
wor@@ 2817
You 2811
fi@@ 2805
will 2800
know 2776
ts 2759
ds 2756
could 2718
me@@ 2701
ing. 2683
make 2678
want 2675
ou@@ 2666
d. 2658
been 2645
able 2644
N@@ 2644
ph@@ 2641
j@@ 2638
L@@ 2622
bo@@ 2561
tu@@ 2532
ers 2508
ed@@ 2506
go 2502
thing 2490
en 2477
other 2475
p 2440
x@@ 2417
than 2398
tion 2387
ver@@ 2361
we@@ 2355
way 2352
he@@ 2347
per@@ 2330
po@@ 2329
ally 2317
st 2308
ment@@ 2304
ical 2280
vi@@ 2277
those 2273
k, 2265
things 2258
F@@ 2256
ma@@ 2254
it. 2244
pi@@ 2240
il@@ 2236
bl@@ 2227
pa@@ 2224
gh@@ 2221
ll@@ 2210
no@@ 2207
age 2188
They 2169
ti@@ 2167
ence 2151
so@@ 2148
ing@@ 2145
ely 2140
new 2130
little 2124
something 2122
sa@@ 2122
et 2121
ta@@ 2112
R@@ 2106
his 2104
first 2100
str@@ 2086
est 2086
In 2083
got 2082
we're 2074
wh@@ 2074
look 2073
I@@ 2073
gi@@ 2068
ed, 2068
av@@ 2053
min@@ 2050
also 2047
ant@@ 2032
ks 2020
no 2016
most 2015
J@@ 2014
ed. 2009
par@@ 2002
ated 1996
time 1989
years 1983
only 1978
two 1968
a, 1939
even 1936
ded 1931
over 1913
ve 1912
all@@ 1902
need 1902
cre@@ 1900
gu@@ 1899
man@@ 1895
op@@ 1890
qu@@ 1877
take 1874
com@@ 1864
much 1853
o 1849
de 1847
er, 1846
l 1838
now 1836
car@@ 1829
ous 1818
ce 1816
w 1813
back 1811
kind 1783
pre@@ 1779
bi@@ 1769
der 1765
ice 1756
ut@@ 1752
you're 1751
lot 1739
here 1739
est@@ 1735
many 1732
world 1730
happen@@ 1729
ine 1729
What 1717
ment 1707
re 1706
ob@@ 1702
she 1695
K@@ 1688
said, 1667
any 1662
there's 1660
enti@@ 1656
work 1656
mon@@ 1647
ght 1647
ther 1640
ess 1635
t, 1633
it, 1632
ist@@ 1630
t. 1625
sion@@ 1624
come 1620
its 1613
om@@ 1608
dis@@ 1607
every 1604
ci@@ 1602
ther@@ 1601
war@@ 1597
♫ 1592
r 1586
through 1585
g 1578
ge 1572
ad 1570
2@@ 1569
pe@@ 1562
use 1554
and@@ 1550
a. 1548
right 1538
did 1537
sc@@ 1536
th 1536
la@@ 1529
sur@@ 1526
around 1514
Now, 1511
ful 1504
So, 1499
um@@ 1494
different 1493
ic 1484
her 1483
ion@@ 1475
they're 1473
being 1469
tra@@ 1464
body 1447
ble 1445
put 1443
te@@ 1443
ev@@ 1437
good 1435
some@@ 1434
any@@ 1433
; 1427
er. 1425
ying 1425
If 1422
gen@@ 1414
gro@@ 1403
same 1403
iti@@ 1401
ot@@ 1400
oo@@ 1392
sol@@ 1391
ation@@ 1383
pic@@ 1382
know, 1379
ir@@ 1370
ked 1364
up@@ 1361
go@@ 1356
stu@@ 1347
coun@@ 1346
cl@@ 1339
ast@@ 1338
ally, 1332
wa@@ 1328
e's 1328
ber@@ 1323
gra@@ 1322
king 1317
year@@ 1316
ever 1314
A 1313
enc@@ 1310
Th@@ 1305
comp@@ 1302
Now 1299
low@@ 1298
anc@@ 1298
fin@@ 1295
know@@ 1295
ang@@ 1294
cor@@ 1283
cu@@ 1281
ating 1273
ide@@ 1267
down 1257
I've 1255
called 1254
ori@@ 1250
end 1247
doing 1245
He 1244
Well, 1242
ear@@ 1241
ation, 1238
ted 1234
inter@@ 1233
da@@ 1230
chang@@ 1226
fac@@ 1225
sci@@ 1222
fe@@ 1221
our@@ 1213
ation. 1211
ys 1210
ce@@ 1207
you. 1207
cent@@ 1203
ary 1203
k. 1201
human 1199
oun@@ 1198
that, 1198
own 1197
That's 1197
ali@@ 1197
every@@ 1194
wi@@ 1190
you@@ 1190
5@@ 1186
red 1182
ant 1181
ning 1179
met@@ 1174
tur@@ 1171
ch 1168
ess@@ 1168
tell 1167
am 1166
three 1165
her@@ 1162
ru@@ 1161
made 1160
is, 1157
ze 1153
find 1149
ding 1147
att@@ 1145
try 1144
why 1139
percent 1131
3@@ 1131
au@@ 1128
.@@ 1126
produc@@ 1123
der@@ 1121
started 1119
als 1117
pres@@ 1115
" 1114
Y@@ 1113
used 1113
pri@@ 1112
imag@@ 1112
liv@@ 1112
sion 1112
didn't 1110
life 1110
ame 1109
Ch@@ 1105
sim@@ 1099
ici@@ 1099
int@@ 1098
ave 1098
?" 1089
give 1087
talk 1087
lear@@ 1084
end@@ 1080
mor@@ 1079
ture 1079
rel@@ 1078
again@@ 1075
Thank 1073
'll 1071
after 1069
br@@ 1069
0@@ 1069
o. 1067
should 1067
TED 1066
plan@@ 1064
hear@@ 1062
Wh@@ 1060
form@@ 1053
x 1050
b 1049
last 1048
say 1046
art@@ 1041
old 1041
There 1040
might 1038
ly, 1038
ting 1036
en, 1035
gre@@ 1024
can't 1024
ations 1023
fun@@ 1023
tri@@ 1022
we've 1022
commun@@ 1020
8@@ 1017
ff@@ 1016
,000 1013
went 1012
bas@@ 1006
ous@@ 1004
wat@@ 1003
oc@@ 1003
of@@ 1000
bu@@ 991
f 991
pla@@ 987
never 984
day 983
tion@@ 982
other@@ 981
self@@ 978
fl@@ 976
speci@@ 976
'@@ 975
n't 974
ni@@ 974
great 973
change 973
loc@@ 972
ain@@ 972
mat@@ 971
tre@@ 968
thou@@ 968
ite 967
off@@ 962
o, 961
How 960
still 958
pr@@ 958
fa@@ 957
son@@ 957
ke 955
ak@@ 953
St@@ 952
me, 950
mu@@ 949
big 946
el 946
gg@@ 942
ance 940
ow@@ 938
plac@@ 936
was@@ 935
thing@@ 934
problem@@ 934
struc@@ 934
sy@@ 929
cont@@ 927
V@@ 925
start 925
tor@@ 925
that. 921
When 921
ort@@ 919
4@@ 917
ght@@ 916
bac@@ 916
19@@ 915
gr@@ 914
show 913
bit 912
hav@@ 909
came 908
ast 906
between 903
hi@@ 903
each 895
ust 895
6@@ 893
pos@@ 892
coll@@ 892
ght, 892
bre@@ 889
mov@@ 888
ral 888
next 888
dre@@ 887
mar@@ 885
jec@@ 878
," 877
deci@@ 877
ey@@ 876
ki@@ 876
can@@ 875
ity. 874
per 874
9@@ 874
this. 873
few 872
idea 870
il 870
out@@ 870
dic@@ 869
part 868
pen@@ 866
bor@@ 865
looking 865
another 864
ution@@ 862
That 860
act@@ 859
reas@@ 856
trans@@ 855
ned 853
eng@@ 853
using 852
ect 850
say, 849
happ@@ 849
al, 846
Talk 844
better 842
7@@ 838
ve@@ 837
ati@@ 833
acc@@ 831
them. 827
al. 825
e? 825
cur@@ 824
work@@ 824
does 823
part@@ 823
An@@ 822
tiv@@ 822
exp@@ 821
comes 820
tw@@ 820
lin@@ 820
ell@@ 818
re. 817
fre@@ 815
day, 815
re, 814
show@@ 814
system@@ 813
jo@@ 810
doesn't 808
sort 807
ste@@ 805
gener@@ 804
les 804
found 803
wanted 801
ically 801
important 801
Subtitles 800
Transcript: 800
thin@@ 799
less 798
differ@@ 797
spe@@ 795
experi@@ 794
zed 793
dow@@ 792
Because 792
off 792
ome 791
trying 790
ity, 790
've 789
may 786
them@@ 781
Americ@@ 781
low 780
eff@@ 778
clo@@ 778
serv@@ 777
ities 776
act 774
call 772
tal@@ 771
question@@ 771
hand@@ 770
before 770
ell 770
world. 769
grow@@ 769
proc@@ 768
ings 768
mark@@ 763
self 762
time, 761
har@@ 761
res 760
this, 757
ful@@ 756
ue 755
ses 752
ure 751
long 750
thought 750
itt@@ 747
ho@@ 745
on, 744
anim@@ 743
possi@@ 743
over@@ 743
working 741
h, 740
said 739
vo@@ 737
net@@ 737
air@@ 736
tive 736
the@@ 736
understand 735
develop@@ 734
on. 734
val@@ 730
always 729
sub@@ 729
ca@@ 728
my@@ 728
million 726
sen@@ 726
ative 724
ational 723
ms 722
fut@@ 722
ack 721
projec@@ 720
stor@@ 720
ven 719
pt@@ 719
whole 718
ates 717
os@@ 717
get@@ 716
ans 714
connec@@ 714
ong 709
cul@@ 705
high@@ 704
un 704
fam@@ 704
pol@@ 702
way, 702
ace 702
vie@@ 700
help 698
place 698
are@@ 697
design@@ 697
ick@@ 695
natu@@ 695
lif@@ 694
lat@@ 694
ber 694
ys, 693
what's 692
ers, 692
asi@@ 690
'd 689
create 688
10 687
live 687
ase 687
year 687
00 686
ach 686
gin@@ 685
dn't 684
kin@@ 683
stre@@ 683
e-@@ 681
ach@@ 681
in, 680
ari@@ 680
y? 680
ty@@ 677
My 677
real 672
side 672
human@@ 671
us, 670
rit@@ 669
person@@ 669
hop@@ 668
thing. 668
coming 667
time. 667
ry 666
getting 666
land@@ 666
mer@@ 665
hist@@ 664
th. 664
ei@@ 664
data 664
feel 662
four 661
und 661
There's 661
ir 660
here, 660
rac@@ 659
love 659
duc@@ 657
gh 656
ory 655
ten@@ 655
us. 655
le, 655
sm@@ 655
fact, 654
le. 654
ds, 652
spi@@ 648
govern@@ 648
char@@ 647
ily 646
elec@@ 646
answ@@ 644
These 644
quite 644
ement@@ 644
pas@@ 644
women 644
cell@@ 642
ani@@ 641
tec@@ 641
making 640
se, 640
maybe 639
ents 638
phy@@ 638
them, 637
took 637
become 636
ter 636
U@@ 636
hel@@ 636
insi@@ 635
believe 635
I'd 635
there. 634
brain 634
th, 632
me. 632
mag@@ 632
you, 631
bill@@ 630
et. 627
problem 627
univer@@ 626
respon@@ 625
5 624
abil@@ 624
ns 623
ric@@ 622
bra@@ 622
pu@@ 622
water 622
ply 622
ef@@ 620
win@@ 619
him 619
done 619
ep@@ 618
uc@@ 618
too 617
bro@@ 617
! 616
ics 615
here. 615
pp@@ 615
One 614
cit@@ 613
se. 613
without 612
In@@ 611
20@@ 611
af@@ 610
writ@@ 610
way. 610
see@@ 610
mus@@ 609
course, 608
means 607
educ@@ 605
We@@ 604
ght. 603
cam@@ 603
one. 602
countri@@ 602
hu@@ 602
reali@@ 601
cer@@ 601
ion 600
power 599
sour@@ 597
cover@@ 595
ions 595
te 595
amp@@ 595
et, 594
world, 594
let 593
number 593
story 592
You@@ 591
interest@@ 589
point 589
best 588
col@@ 587
light 586
social 585
long@@ 585
wee@@ 585
ren@@ 585
id 584
small 584
makes 584
now, 583
five 582
chi@@ 581
thre@@ 581
cas@@ 581
ch. 581
oul@@ 579
ence. 579
hun@@ 579
boo@@ 578
years, 576
0 575
in. 575
dat@@ 575
ss 575
ves 573
probably 573
ore 573
rec@@ 573
lik@@ 572
inst@@ 572
system 572
sit@@ 570
day. 570
technology 570
nam@@ 568
ers. 568
new@@ 568
n. 567
talking 567
loo@@ 567
cho@@ 566
rese@@ 566
om 565
n, 565
For 565
school@@ 563
plic@@ 561
sk@@ 561
wom@@ 559
pho@@ 557
exper@@ 556
I'll 555
told 554
polit@@ 554
ess. 554
ka@@ 554
ess, 554
start@@ 553
dollar@@ 552
lev@@ 552
organi@@ 550
one, 550
environ@@ 550
ran@@ 549
like, 548
ke@@ 548
point@@ 548
there, 548
dition@@ 547
ass@@ 547
person 547
sum@@ 547
pretty 547
pe 547
man 546
We're 545
beg@@ 545
ps 545
ai@@ 545
ready 545
ood 545
read 545
such 544
As 544
s? 544
out, 543
sch@@ 543
don@@ 543
den@@ 543
form 541
build 540
busin@@ 540
saw 539
ple 539
sure 539
Indi@@ 539
pt 539
friend@@ 538
ask 538
compl@@ 538
ons 536
lit@@ 535
Afric@@ 535
prof@@ 534
question 534
en. 532
kill@@ 532
comput@@ 530
ence, 529
bec@@ 529
people, 528
en't 528
now@@ 527
ser@@ 527
particul@@ 527
wonder@@ 526
together 524
living 524
ge@@ 522
popul@@ 521
everything 521
200@@ 520
ement 520
dise@@ 520
you've 520
mem@@ 520
fron@@ 519
design 517
buil@@ 517
aw@@ 517
m, 516
across 516
underst@@ 516
well@@ 516
sup@@ 516
Why 515
dist@@ 515
port@@ 514
power@@ 514
contro@@ 514
what@@ 514
seen 513
tell@@ 512
mach@@ 512
dd@@ 511
cour@@ 509
out. 508
ator@@ 508
fo@@ 507
fer@@ 506
id@@ 506
world@@ 506
Inter@@ 505
global 505
figu@@ 505
not@@ 504
dy 504
She 504
him@@ 504
certa@@ 504
well 504
half 504
thous@@ 504
ago, 503
face 502
ill@@ 501
head@@ 501
20 500
ale 499
set 499
thinking 499
all, 499
right@@ 499
second 498
ition 498
ris@@ 497
lead@@ 497
eas@@ 496
having 496
ak 495
hap@@ 495
societ@@ 494
away 494
alth 494
shar@@ 494
remem@@ 494
ool 493
dro@@ 493
dent@@ 491
um 491
feel@@ 491
Ma@@ 491
goes 490
sist@@ 490
read@@ 490
whether 489
great@@ 489
list@@ 488
let's 487
ner@@ 487
amaz@@ 486
por@@ 486
succ@@ 486
cri@@ 484
cap@@ 484
hy@@ 483
e: 483
keep 483
50 482
asked 482
evol@@ 482
almost 481
wron@@ 480
de, 480
org@@ 479
play 479
children 479
ved 479
All 478
move 478
mean, 478
ig@@ 478
building 478
teach@@ 478
full@@ 477
New 477
left 476
an, 475
chall@@ 475
bri@@ 474
child@@ 474
inc@@ 473
or, 473
ds. 473
direc@@ 473
mean@@ 473
lar@@ 473
imes 472
under@@ 472
eg@@ 471
kids 471
ly. 471
pati@@ 471
gir@@ 470
turn 470
st, 469
m. 468
thing, 468
complet@@ 468
do. 468
within 467
du@@ 467
wal@@ 467
ss@@ 467
hou@@ 467
2 466
looks 466
incredi@@ 465
care 465
ga@@ 465
life. 465
atter@@ 465
materi@@ 464
ths 464
fil@@ 464
spec@@ 464
shi@@ 463
actu@@ 463
hour@@ 462
young 462
hard 462
pot@@ 461
learn 461
fact 461
reg@@ 459
riv@@ 458
ey 457
single 457
if@@ 457
run@@ 456
arch@@ 456
tions 455
looked 455
ten 454
ins 454
high 454
tion. 454
information 454
ship 454
ets 454
ones 454
ativ@@ 453
while 453
both 453
bring 453
mas@@ 453
rat@@ 453
Ri@@ 452
U.@@ 452
ext@@ 452
public 452
they@@ 451
' 451
’@@ 451
sive 451
line 450
United 450
hom@@ 450
i 450
ail@@ 450
men 449
sti@@ 449
ther, 449
langu@@ 449
oper@@ 448
ken 447
bod@@ 447
del@@ 446
sense 445
example, 445
enough 445
't 444
No@@ 444
tim@@ 443
economi@@ 443
vit@@ 443
stand@@ 443
room@@ 443
arch 442
lu@@ 441
ute 441
ors 441
sin@@ 441
sul@@ 440
ness 440
import@@ 440
ect@@ 440
minut@@ 439
sel@@ 439
student@@ 439
incre@@ 439
energy 438
rag@@ 437
up, 437
ann@@ 437
ard 437
sta@@ 437
he's 437
selves 437
En@@ 436
inf@@ 436
age, 435
sic@@ 433
[@@ 433
ain 433
money 433
today 433
ind 432
ack@@ 432
far@@ 432
top 432
up. 432
They're 432
ands 432
well, 431
comm@@ 430
interesting 429
times 429
spac@@ 429
people. 429
ill 429
mill@@ 428
individu@@ 428
Mar@@ 428
ent. 428
til 427
beli@@ 427
six 426
technolog@@ 426
taking 426
so, 424
bly 424
rem@@ 424
beauti@@ 423
toge@@ 423
larg@@ 423
fu@@ 422
ere 422
begin@@ 422
dra@@ 422
bad 421
leg@@ 421
stori@@ 420
ver 420
ition@@ 420
ways 419
bil@@ 417
icul@@ 417
food 417
cos@@ 416
cro@@ 416
tro@@ 416
fic@@ 416
ish 415
qual@@ 414
present@@ 414
sec@@ 413
Let@@ 413
gam@@ 412
ust@@ 411
inste@@ 411
far 411
seri@@ 410
coul@@ 409
vir@@ 408
rou@@ 408
work. 406
put@@ 406
chil@@ 405
dri@@ 405
vic@@ 405
imp@@ 404
] 402
sign@@ 402
want@@ 401
kes 400
ong@@ 400
vol@@ 399
ut 398
de. 398
book 397
bar@@ 397
... 396
"I 396
lim@@ 395
num@@ 395
diff@@ 394
open 392
Al@@ 392
arti@@ 391
atu@@ 391
aut@@ 391
od 390
30 389
00@@ 388
real@@ 387
mol@@ 385
medi@@ 385
mis@@ 385
tem@@ 384
♪ 384
clim@@ 383
— 383
foll@@ 383
cogn@@ 382
star@@ 378
s: 377
cat@@ 376
vers@@ 376
ram@@ 373
continu@@ 372
Sh@@ 371
aff@@ 370
case 369
test@@ 368
oce@@ 366
tt@@ 365
fri@@ 365
computer 364
ank 364
bir@@ 364
e." 363
reli@@ 361
od@@ 361
Is@@ 360
ece 360
econom@@ 358
togra@@ 357
moment@@ 357
S. 356
selv@@ 356
vent@@ 355
olog@@ 355
that@@ 355
sor@@ 354
app@@ 354
an. 353
ose 351
ulti@@ 350
viol@@ 349
qui@@ 349
won@@ 347
ordin@@ 347
wit@@ 345
non@@ 344
micro@@ 343
ven@@ 343
as, 342
ben@@ 341
eri@@ 340
sto@@ 340
ep 340
inclu@@ 340
ate, 339
vari@@ 338
Jo@@ 337
clu@@ 336
ah@@ 336
is. 336
Af@@ 335
8 333
innov@@ 333
ve, 333
"O@@ 332
Yor@@ 332
Ar@@ 332
,@@ 331
opportun@@ 331
cir@@ 331
uni@@ 329
plo@@ 328
Li@@ 328
100 328
build@@ 328
perf@@ 327
ow 327
anti@@ 327
Euro@@ 326
Con@@ 326
OK@@ 325
men@@ 324
mess@@ 324
percent@@ 322
Chri@@ 321
fir@@ 321
ere's 321
fel@@ 319
matt@@ 318
befor@@ 318
are, 318
ash@@ 318
ron@@ 317
ese 316
robo@@ 316
bet@@ 316
dar@@ 315
son 315
invest@@ 315
positi@@ 314
gl@@ 314
med@@ 314
exampl@@ 311
do, 311
abor@@ 310
state 309
ld 309
clas@@ 308
inform@@ 308
secon@@ 308
4 306
Re@@ 306
program@@ 305
ener@@ 305
studi@@ 303
0, 303
invol@@ 302
Gre@@ 302
pul@@ 301
aver@@ 301
video 301
defin@@ 301
las@@ 300
Le@@ 300
squ@@ 300
gli@@ 299
ve. 299
che@@ 295
ol 295
fro@@ 294
famili@@ 294
call@@ 292
net 292
with@@ 292
dur@@ 291
scienti@@ 291
del 289
ate. 288
sequ@@ 286
ere, 285
democ@@ 283
mal@@ 283
iment@@ 283
Be@@ 282
ever@@ 281
anis@@ 280
az@@ 280
situ@@ 280
are. 280
itu@@ 280
're 280
1 280
stra@@ 280
ologi@@ 279
tto@@ 278
ople 278
Di@@ 277
tric@@ 276
emer@@ 275
roc@@ 275
TED@@ 275
ine, 274
oni@@ 274
evi@@ 272
stic@@ 272
ign@@ 272
ina 272
ssi@@ 271
rest@@ 270
bal@@ 269
vill@@ 268
norm@@ 268
biolog@@ 268
archit@@ 267
comb@@ 266
3 266
fortun@@ 266
Pro@@ 265
tran@@ 264
rin@@ 264
cli@@ 263
stat@@ 262
Goo@@ 262
ament@@ 261
visi@@ 261
pass@@ 260
technolo@@ 260
soci@@ 259
S 259
fav@@ 259
ye@@ 258
peopl@@ 258
descri@@ 257
gar@@ 257
ov@@ 256
Z@@ 255
6 255
ele@@ 255
cost@@ 253
simi@@ 252
prov@@ 252
15 251
din@@ 251
super@@ 250
alk 250
10@@ 250
sof@@ 250
moder@@ 249
ban@@ 249
intern@@ 249
o-@@ 248
disc@@ 247
DN@@ 247
7 246
medic@@ 246
CA: 246
pow@@ 245
priv@@ 244
stru@@ 244
ved@@ 243
tech@@ 243
carb@@ 243
solut@@ 243
sue 241
canc@@ 241
at's 240
inv@@ 240
Africa 240
iv@@ 238
invent@@ 238
stri@@ 237
fur@@ 236
Ne@@ 235
grand@@ 235
Su@@ 234
sugg@@ 234
sem@@ 233
D 233
tar@@ 232
fis@@ 232
indu@@ 232
pat@@ 230
ession@@ 229
ich@@ 229
preci@@ 229
movi@@ 228
40 228
vide@@ 227
Fran@@ 227
pan@@ 226
ester@@ 226
radi@@ 226
da 226
intell@@ 225
ppor@@ 224
ica 224
ll 223
capit@@ 220
Ro@@ 220
ero@@ 220
ft 219
u 219
throu@@ 219
ature 219
sal@@ 218
zz@@ 217
ini@@ 217
media 216
compet@@ 214
cin@@ 214
terri@@ 214
sing@@ 213
Bi@@ 212
int 212
post@@ 211
digit@@ 211
ause 210
Com@@ 210
publi@@ 209
ate@@ 208
colo@@ 208
uro@@ 208
fem@@ 207
tele@@ 207
ia 205
ere@@ 205
inten@@ 204
nuc@@ 203
necess@@ 203
plor@@ 202
develo@@ 201
era 200
9 199
Co@@ 199
i, 198
amb@@ 198
Un@@ 198
dev@@ 197
ybe 195
viv@@ 194
to, 193
V 193
sens@@ 193
Par@@ 193
og@@ 191
ow, 190
progre@@ 189
equi@@ 189
ould 189
enou@@ 186
alist@@ 184
Uni@@ 183
dimen@@ 182
gn@@ 181
ure@@ 181
peri@@ 180
que 180
influ@@ 178
civi@@ 178
pover@@ 177
diver@@ 177
ere. 177
Dav@@ 176
nor@@ 176
sco@@ 175
ett@@ 175
let@@ 175
des@@ 175
colleg@@ 174
ove 173
luc@@ 173
ete 172
Per@@ 171
hal@@ 169
sent@@ 169
mic@@ 168
essi@@ 168
eve 168
ho 168
pag@@ 167
ich 167
lun@@ 166
!@@ 165
la 165
alc@@ 164
illu@@ 164
"S@@ 164
solu@@ 164
Amer@@ 163
It@@ 162
termin@@ 161
princi@@ 160
regi@@ 159
possibil@@ 159
robot 158
sett@@ 158
cal@@ 158
ably 157
whe@@ 157
caus@@ 157
conv@@ 157
consi@@ 156
industri@@ 156
controll@@ 155
blo@@ 155
enor@@ 153
scri@@ 152
scar@@ 151
signific@@ 150
no, 150
glob@@ 148
ma 147
lob@@ 146
liber@@ 146
prote@@ 145
pet@@ 143
fine 143
to. 142
alt@@ 141
stem 141
fort@@ 140
ost@@ 139
bus@@ 139
T 138
For@@ 138
bile 138
asp@@ 137
ung@@ 137
lav@@ 136
rap@@ 136
ole 135
z 134
capac@@ 134
desi@@ 134
ild@@ 133
Vi@@ 132
econ@@ 131
X@@ 131
consider@@ 130
motiv@@ 127
i. 127
Gu@@ 127
They@@ 125
ale. 125
lan@@ 124
omi@@ 122
/@@ 122
mort@@ 121
forni@@ 121
doll@@ 119
ina, 118
dig@@ 118
contr@@ 118
pren@@ 118
youn@@ 118
utt@@ 116
acci@@ 116
fici@@ 115
fantast@@ 115
contin@@ 114
ound 114
volu@@ 114
bb@@ 113
hum@@ 113
tra 112
attr@@ 112
centr@@ 112
ire 111
gn 111
mac@@ 110
ero 110
scen@@ 109
anz@@ 107
Gi@@ 106
san@@ 103
Qu@@ 103
tit@@ 103
C 102
a: 102
pal@@ 102
letter@@ 102
ampl@@ 102
mani@@ 101
perio@@ 101
ana 100
natur@@ 99
sult@@ 99
scal@@ 99
$@@ 98
ale, 98
inci@@ 97
guar@@ 97
P 96
auti@@ 94
vis@@ 94
due 93
ene 92
O 92
stem@@ 91
ane 91
sper@@ 90
edi@@ 90
pun@@ 90
gest@@ 89
fos@@ 89
aper@@ 89
libr@@ 88
infor@@ 88
intellig@@ 87
so. 87
ness@@ 86
propri@@ 86
fr@@ 85
na 85
con 84
sai@@ 84
gram@@ 84
ina. 84
ra 84
kno@@ 83
tras@@ 82
elet@@ 81
agg@@ 80
o: 80
acqu@@ 80
etter 80
nex@@ 79
arri@@ 79
ile 78
arriv@@ 78
parti@@ 78
scu@@ 78
spon@@ 77
q@@ 77
io 76
sia 76
Q@@ 76
nec@@ 76
fat@@ 75
ribu@@ 75
ans@@ 75
accor@@ 73
gy 72
All@@ 72
litt@@ 72
base 71
prim@@ 71
abb@@ 70
ont@@ 70
Ben@@ 70
nu@@ 68
ne 68
ea 67
ai 67
scor@@ 67
indi@@ 67
appar@@ 66
K 66
uti@@ 66
di 65
ili@@ 64
é@@ 64
demo@@ 64
prob@@ 64
dir@@ 63
no. 63
M 63
Come 62
cen@@ 62
Vo@@ 62
ha 62
B 61
ord@@ 61
lon@@ 61
ambi@@ 61
ano 59
q 59
bell@@ 59
ool@@ 58
ell, 58
te, 58
;@@ 57
aria 57
emo@@ 56
a? 56
&@@ 56
quest@@ 56
script@@ 54
]@@ 54
A: 52
nel 52
?@@ 51
Cre@@ 51
nov@@ 51
bili@@ 51
ro 50
ingu@@ 49
occu@@ 49
da, 49
- 48
ita 48
vist@@ 48
ren 48
R 48
pens@@ 47
ore, 47
zi@@ 47
via 47
..@@ 46
o? 45
ola 45
enz@@ 45
worl@@ 44
vere 44
Pen@@ 43
E 43
quant@@ 42
opl@@ 42
uman@@ 42
X 41
occup@@ 41
iti 41
lor@@ 40
pad@@ 40
ore. 40
bli@@ 39
ino 39
razi@@ 39
does@@ 39
G 39
gover@@ 39
co, 39
“@@ 38
ico 38
:@@ 38
ra, 38
acro@@ 37
vor@@ 37
ta 37
N 37
L 37
sar@@ 37
cc@@ 37
atori@@ 37
v 36
diverse 36
una 36
mili@@ 35
ata 35
probabil@@ 35
” 34
ok 34
che 33
Im@@ 33
mad@@ 32
li 32
tta 32
betwe@@ 32
U 32
nolo@@ 32
ri 32
gio@@ 31
ra. 30
ific@@ 30
amer@@ 29
La 29
ora 29
ini 29
tut@@ 29
ario 28
envi@@ 28
sb@@ 28
ato 28
bo 27
ari 27
fare 27
ro, 26
erra 26
co. 26
olo@@ 26
gran@@ 25
ani 25
ette 25
Y 25
ou 24
ica, 24
fant@@ 24
ppi@@ 24
ura 24
senti@@ 24
va 24
mo 24
ca 23
dal 23
agn@@ 23
perc@@ 23
ali 23
utili@@ 23
F 23
+ 23
uno 23
velo@@ 22
ica. 22
azz@@ 22
TE@@ 22
altr@@ 22
H 21
Tran@@ 21
nat@@ 21
_@@ 21
co 21
[ 21
dare 20
tty 20
í@@ 20
ello 20
á@@ 19
sa 19
dice 19
ati 19
Sub@@ 18
ã@@ 18
fon@@ 18
sfi@@ 18
veloc@@ 18
lo 18
#@@ 18
lingu@@ 17
Q 17
fatt@@ 17
Pot@@ 17
@@@ 17
ç@@ 17
merc@@ 17
solo 17
ito 17
tto 16
é 16
gett@@ 16
ro. 15
elle 15
lavor@@ 15
sta 15
legg@@ 15
ano. 14
lo, 14
ori 14
Ci@@ 14
—@@ 14
ogg@@ 14
pes@@ 14
 @@ 14
entr@@ 14
% 14
mi 14
ede 14
etti 13
rete 13
ata. 13
d'@@ 13
Ed 13
/ 13
torn@@ 13
zza 13
Av@@ 13
Quest@@ 13
ga 13
= 12
… 12
esse 12
si 12
osc@@ 12
ano, 11
oria 11
ando 11
etti@@ 11
ö@@ 11
guard@@ 11
osci@@ 11
cellu@@ 11
muc@@ 11
ali, 11
j 10
cose 10
ete, 10
I'@@ 10
ono 10
vo 10
ona 10
titles 10
prog@@ 9
non 9
nell@@ 9
mia 9
– 9
W 9
posi@@ 9
", 9
lei 9
blem@@ 9
ati, 9
) 9
ata, 9
Z 9
dove 8
+@@ 8
ggi@@ 8
chi 8
fu 8
ci 8
ei 8
di, 8
po 8
di. 8
atti@@ 8
capi@@ 8
volt@@ 8
ti 8
ella 8
aver 8
aggi@@ 8
gia 7
ali. 7
che, 7
pian@@ 7
lem 7
è@@ 7
oro 7
dov@@ 7
Pos@@ 7
ato, 6
J 6
Le 6
ó@@ 6
si, 6
lo. 6
". 6
nas@@ 6
ü@@ 6
emo 5
enza. 5
ito, 5
perch@@ 5
rius@@ 5
’ 5
oni 5
utto@@ 5
avo 5
ava 5
agli@@ 5
l'@@ 5
sopr@@ 5
ñ@@ 5
fa 5
pub@@ 5
anza 5
Cos@@ 5
Il 5
cresc@@ 4
dai 4
ti. 4
vi 4
ato. 4
esper@@ 4
cerv@@ 4
vidu@@ 4
á 4
Sap@@ 4
oso 4
della 4
eri 4
colt@@ 4
azi@@ 4
ricer@@ 4
ø@@ 4
Tut@@ 4
อ@@ 4
mo. 4
ora, 4
Per 4
000 4
‘@@ 4
ti, 4
amo 4
=@@ 3
endo 3
unqu@@ 3
etto 3
_ 3
–@@ 3
po. 3
(@@ 3
ento 3
po, 3
uro 3
dell@@ 3
dire 3
ù 3
^ 3
circa 3
svi@@ 3
fond@@ 3
  3
oi 3
L'@@ 3
eva 3
esi 3
portun@@ 3
si. 3
enzi@@ 3
ante 3
ä@@ 3
anche 3
enza 3
^@@ 2
asi 2
anti 2
Era 2
mo, 2
anzi@@ 2
ante, 2
zio 2
americ@@ 2
ć@@ 2
giu@@ 2
Ma 2
quel 2
à 2
ร@@ 2
่@@ 2
ย@@ 2
ó 2
ï@@ 2
abbi@@ 2
grazi@@ 2
impar@@ 2
chio 2
amento 2
servi@@ 2
allo 2
anto 2
vu@@ 2
dire, 2
ente 2
* 2
esist@@ 2
indi 2
Ha 2
dav@@ 2
sap@@ 2
qui 2
²@@ 2
lui 2
ë@@ 2
Lo 1
€@@ 1
indi, 1
enza, 1
Non 1
sull@@ 1
Unit@@ 1
́@@ 1
ori. 1
tempo 1
…@@ 1
avere 1
parl@@ 1
ø 1
setti@@ 1
√@@ 1
±@@ 1
sare@@ 1
e' 1
ricor@@ 1
alla 1
Vi 1
dell'@@ 1
sui 1
olo 1
uti 1
í 1
bamb@@ 1
Grazie. 1
primo 1
â@@ 1
.000 1
acqua 1
all'@@ 1
glio 1
¡@@ 1
mio 1
送@@ 1
你@@ 1
葱 1
arlo 1
ê@@ 1
ï 1
arsi 1
ppo 1
aia 1
essa 1
# 1
enti 1
ione 1
Una 1
ori, 1
segu@@ 1
É@@ 1
ades@@ 1
ati. 1
”@@ 1
ć 1
ché 1
è 1
dett@@ 1
@@ 1
@@ 1
prat@@ 1
risp@@ 1
certo 1
sto 1
etro 1
Se 1
igli@@ 1
à@@ 1
pi 1
c'@@ 1
evo 1
fa, 1
