di 58035
e 49603
che 47099
a 46164
i 31478
la 28366
un 26123
è 25397
il 24822
in 24340
o 20428
per 20225
are 18263
una 17303
non 15683
le 14874
ato 13789
si 13463
i@@ 13295
s@@ 13293
a. 13259
a, 12796
ri@@ 12686
in@@ 12199
e. 12171
t@@ 11660
l'@@ 11504
e, 11359
sono 11228
o. 11196
E 11150
o, 11085
, 10963
da 10956
e@@ 10177
di@@ 9937
del 9592
. 9560
o@@ 9223
come 9105
con 9070
più 8936
ar@@ 8830
d@@ 8734
to 8699
er@@ 8690
ano 8669
c@@ 8655
i, 8613
se 8151
st@@ 7811
pi@@ 7780
ma 7733
della 7715
m@@ 7689
S@@ 7677
ci 7472
i. 7386
questo 7322
av@@ 7252
es@@ 7246
b@@ 7021
a@@ 7017
ci@@ 6982
an@@ 6950
mi 6824
con@@ 6786
v@@ 6737
g@@ 6721
"@@ 6718
p@@ 6668
ere 6546
it@@ 6541
or@@ 6529
r@@ 6503
al@@ 6384
ha 6330
u@@ 6322
f@@ 6270
re@@ 6180
on@@ 6174
al 6145
ale 6136
l@@ 5891
am@@ 5739
de@@ 5691
lo 5658
vi@@ 5639
D@@ 5632
gli 5582
n@@ 5537
nel 5509
at@@ 5505
si@@ 5468
: 5434
ate 5406
co@@ 5393
im@@ 5386
as@@ 5348
en@@ 5256
era 5235
ol@@ 5103
M@@ 5068
ti 5065
dei 4977
ità 4973
par@@ 4938
ic@@ 4888
azione 4797
ho 4769
C@@ 4736
ando 4682
Ma 4654
so 4651
delle 4643
chi@@ 4593
per@@ 4491
zione 4428
pre@@ 4423
-- 4395
pro@@ 4391
amente 4390
molto 4382
cosa 4371
P@@ 4356
abbiamo 4284
questa 4278
alla 4248
ati 4228
cui 4225
re 4166
mo@@ 4138
ono 4131
A@@ 4110
essere 4096
ra@@ 4095
? 4071
ica 4058
ti@@ 4019
perché 4012
anche 3974
ore 3956
Non 3933
ata 3933
vi 3896
mi@@ 3892
att@@ 3892
li@@ 3877
ver@@ 3874
us@@ 3832
gi@@ 3831
po@@ 3830
fi@@ 3758
un@@ 3720
loro 3706
so@@ 3675
hanno 3674
qu@@ 3648
do@@ 3600
dell'@@ 3593
no@@ 3586
quando 3582
La 3580
N@@ 3565
est@@ 3558
z@@ 3555
'@@ 3544
et@@ 3542
em@@ 3511
T@@ 3483
ent@@ 3470
uno 3437
ro@@ 3435
B@@ 3423
ag@@ 3416
su@@ 3407
amo 3386
com@@ 3377
solo 3352
do 3345
su 3338
te 3319
ai 3308
fare 3308
ett@@ 3267
sc@@ 3260
pot@@ 3254
persone 3252
cre@@ 3247
zz@@ 3228
ali 3222
man@@ 3222
un'@@ 3205
io 3202
ente 3201
ad 3196
Il 3184
ac@@ 3157
ter@@ 3138
se@@ 3130
col@@ 3122
enza 3118
anno 3106
cor@@ 3085
tu@@ 3080
bi@@ 3060
E@@ 3040
quello 3040
sp@@ 3028
O@@ 3027
min@@ 3017
far@@ 2989
ap@@ 2958
mo 2927
el@@ 2927
ad@@ 2898
ric@@ 2889
vol@@ 2874
tutto 2872
sol@@ 2837
inter@@ 2819
ec@@ 2818
tutti 2809
ur@@ 2793
siamo 2769
ch@@ 2768
nella 2768
ne 2754
de 2730
modo 2725
ò 2713
così 2709
gli@@ 2678
ico 2673
L@@ 2673
sta 2668
1@@ 2659
va 2643
ut@@ 2637
cos@@ 2631
sia 2613
li 2582
all'@@ 2571
mia 2567
dic@@ 2542
questi 2540
dov@@ 2519
anni 2515
mio 2513
str@@ 2512
queste 2510
me 2497
à 2488
ev@@ 2475
ori 2463
and@@ 2439
fatto 2433
V@@ 2431
ed 2416
ciò 2392
is@@ 2381
fin@@ 2371
R@@ 2365
stato 2362
F@@ 2358
for@@ 2352
ess@@ 2319
ven@@ 2310
chi 2301
fer@@ 2298
È 2290
ori@@ 2261
H@@ 2257
dis@@ 2256
Questo 2253
car@@ 2244
to@@ 2231
endo 2229
met@@ 2229
der@@ 2226
cose 2223
gu@@ 2221
ll@@ 2207
ante 2205
ete 2202
sione 2199
G@@ 2180
ale. 2169
parte 2167
enti 2162
ino 2160
ento 2147
anti 2147
ment@@ 2127
ot@@ 2114
ris@@ 2096
h@@ 2090
ro 2086
può 2073
rit@@ 2064
migli@@ 2063
due 2061
tr@@ 2058
alt@@ 2057
prima 2051
ogni 2043
ati@@ 2042
In 2025
all@@ 2013
gen@@ 2008
pens@@ 2002
-@@ 1998
lavor@@ 1997
oc@@ 1996
ant@@ 1980
dal 1980
ell@@ 1979
ul@@ 1974
fic@@ 1974
ari@@ 1971
succ@@ 1963
etto 1959
pa@@ 1957
acc@@ 1947
mondo 1929
ist@@ 1927
tra 1926
zion@@ 1918
ale, 1915
c'è 1911
os@@ 1907
cont@@ 1904
te@@ 1891
ava 1888
sap@@ 1884
ina 1881
Quindi 1876
cer@@ 1875
port@@ 1861
ed@@ 1837
pen@@ 1834
- 1832
sci@@ 1821
sul 1820
ura 1820
degli 1816
ing@@ 1806
." 1796
dove 1784
ta 1783
ve@@ 1777
sulla 1774
zioni 1768
chiam@@ 1767
ora 1761
ari 1758
azioni 1757
tt@@ 1753
ero 1752
br@@ 1746
Se 1740
le@@ 1738
are. 1737
uto 1734
mostr@@ 1729
ass@@ 1712
Qu@@ 1701
poi 1698
noi 1692
cu@@ 1685
mente 1673
bu@@ 1663
quel 1662
" 1653
qualcosa 1649
I@@ 1641
vo@@ 1640
pri@@ 1637
pe@@ 1636
ine 1627
aggi@@ 1624
ici 1620
so, 1619
ini 1618
mai 1617
stra@@ 1613
ne@@ 1606
cambi@@ 1604
divent@@ 1597
alle 1595
amento 1591
gn@@ 1588
L'@@ 1583
no 1582
". 1581
tem@@ 1579
iamo 1578
du@@ 1568
2@@ 1566
quella 1562
ab@@ 1561
diamo 1559
int@@ 1558
ato. 1558
ma@@ 1548
♫ 1546
tras@@ 1545
ni@@ 1544
lo@@ 1543
vedere 1541
gente 1541
possiamo 1537
inizi@@ 1532
cam@@ 1532
person@@ 1529
qual@@ 1527
k@@ 1519
vita 1519
uman@@ 1518
almente 1511
anz@@ 1509
cent@@ 1508
meno 1507
eva 1505
post@@ 1502
ion@@ 1497
bil@@ 1496
diver@@ 1496
ff@@ 1495
vo 1492
ancora 1488
E' 1478
dalla 1477
nostro 1477
zi@@ 1474
are, 1470
ra 1467
do, 1463
co. 1458
ser@@ 1445
co, 1444
ce 1443
om@@ 1441
sion@@ 1433
mon@@ 1429
y@@ 1424
ve 1421
ato, 1420
quanto 1412
Per 1411
erano 1411
eff@@ 1403
qui 1403
ita 1400
suo 1398
sto 1398
pres@@ 1397
Sono 1395
o? 1390
ole 1387
il@@ 1382
me@@ 1382
nostra 1380
grande 1379
vit@@ 1378
etti 1373
fa 1365
ov@@ 1363
azion@@ 1361
mat@@ 1361
pr@@ 1356
davvero 1353
fon@@ 1345
I 1344
evo 1340
op@@ 1339
Questa 1336
sua 1333
er 1327
can@@ 1324
... 1323
esso 1323
Ho 1320
mer@@ 1319
K@@ 1319
iti 1315
no, 1314
acci@@ 1313
ire 1306
sal@@ 1304
tut@@ 1302
do. 1299
altro 1299
ament@@ 1297
gra@@ 1296
gh@@ 1293
sempre 1293
um@@ 1292
dent@@ 1292
fac@@ 1286
au@@ 1279
d'@@ 1276
pren@@ 1275
parl@@ 1274
one 1274
nell'@@ 1273
pass@@ 1271
In@@ 1270
sic@@ 1269
Ci 1269
ast@@ 1267
eg@@ 1263
Abbiamo 1262
A 1262
nei 1256
sa@@ 1254
volta 1252
ved@@ 1251
pi 1250
uc@@ 1245
aff@@ 1244
no. 1241
essi@@ 1241
pu@@ 1241
enzi@@ 1240
ben@@ 1236
possono 1235
guard@@ 1229
fo@@ 1228
comun@@ 1228
' 1228
5@@ 1227
J@@ 1224
avere 1224
ito 1221
bile 1218
e? 1214
tempo 1208
tre 1207
aut@@ 1207
sti@@ 1205
senza 1200
so. 1199
sa 1192
che, 1181
dire 1179
funzion@@ 1176
ren@@ 1176
olo 1173
trov@@ 1170
ola 1168
Perché 1163
é 1161
tutte 1161
giu@@ 1160
stata 1157
Come 1156
nelle 1155
esi 1153
to, 1153
Le 1152
proprio 1147
qualche 1147
pol@@ 1145
ragazz@@ 1144
U@@ 1142
Si 1139
An@@ 1139
cerc@@ 1139
aggio 1139
gg@@ 1136
nostri 1134
mag@@ 1134
W@@ 1133
quindi 1133
prov@@ 1132
mol@@ 1130
dopo 1128
ite 1126
rei 1126
ali@@ 1126
avo 1119
esse 1117
gener@@ 1114
avano 1114
agli@@ 1112
altri 1106
ra. 1106
3@@ 1106
interess@@ 1103
ten@@ 1099
idea 1096
end@@ 1094
cas@@ 1093
ide@@ 1090
senti@@ 1087
zza 1081
voi 1080
po' 1079
cominci@@ 1078
ani 1075
are@@ 1074
po, 1071
sco@@ 1071
anti@@ 1069
on 1068
picco@@ 1068
anza 1067
import@@ 1066
molti 1061
Mi 1057
tipo 1054
?" 1049
dere 1045
ità. 1044
negli 1044
viv@@ 1043
Quando 1042
deci@@ 1041
nu@@ 1039
por@@ 1035
ru@@ 1031
sistema 1030
coll@@ 1029
oi 1028
go@@ 1026
segu@@ 1026
arriv@@ 1026
ra, 1024
.@@ 1022
re, 1020
e: 1016
l 1016
ia 1014
mor@@ 1011
TED 1010
po 1010
colo@@ 1008
aiut@@ 1008
mar@@ 1004
rebbe 1002
agli 993
tra@@ 992
lavoro 989
comp@@ 988
Ed 987
8@@ 987
arti@@ 986
unque 985
etti@@ 983
essi 980
viene 979
and 978
storia 976
don@@ 974
remmo 967
ca 965
ir@@ 964
amente, 959
ese 958
bo@@ 956
bisogno 956
bas@@ 952
ambi@@ 951
go 948
altra 947
dall'@@ 947
ness@@ 944
a? 944
o: 943
impar@@ 943
quest@@ 941
circa 941
gr@@ 940
cost@@ 934
ì, 931
indi@@ 928
ici@@ 928
mus@@ 927
stesso 926
d 926
costru@@ 925
proc@@ 920
fat@@ 919
altre 918
fu@@ 917
ità, 917
punto 913
val@@ 912
4@@ 911
eri 910
ali, 907
form@@ 906
zzo 906
Un 905
à, 903
stru@@ 901
alizz@@ 900
mentre 899
na 898
Per@@ 898
fatt@@ 897
test@@ 895
evol@@ 894
continu@@ 891
ca@@ 890
id@@ 889
dati 889
All@@ 888
soci@@ 888
cono 887
ro. 887
co 887
reg@@ 886
ali. 886
rag@@ 883
anim@@ 881
ica. 881
fosse 880
an 880
vic@@ 877
iti@@ 876
tro@@ 876
zione. 875
ente. 874
cal@@ 874
azione. 873
9@@ 872
n 870
6@@ 867
disc@@ 867
pun@@ 866
pl@@ 866
stiamo 862
aveva 861
problema 861
sor@@ 860
stori@@ 856
ica, 856
giorn@@ 855
uti 854
pag@@ 854
studi@@ 854
s 853
dello 853
evano 853
miei 852
potete 850
bili@@ 850
ede 848
facci@@ 848
menti 848
pas@@ 846
vogli@@ 845
anni, 844
son@@ 843
gior@@ 842
lasci@@ 842
fine 841
mu@@ 840
immagin@@ 840
ano. 839
cresc@@ 839
dire@@ 839
visto 838
creare 838
legg@@ 835
fino 834
Tut@@ 833
y 832
re. 832
semplic@@ 832
nostre 832
ione 831
vu@@ 831
ario 830
! 829
strut@@ 828
0@@ 828
sopr@@ 827
azione, 825
plic@@ 825
Talk 824
7@@ 823
dist@@ 822
scu@@ 820
app@@ 819
; 819
bell@@ 818
alcuni 817
eri@@ 817
à. 817
capire 816
u 815
stanno 815
ano, 811
ber@@ 811
immag@@ 811
00 810
è@@ 808
ro, 807
po. 806
ti, 805
gioc@@ 805
atti@@ 804
lo. 803
quelle 803
Una 801
Subtitles 800
Transcript: 800
part@@ 799
fond@@ 799
itu@@ 798
sioni 796
fil@@ 796
realtà 796
sper@@ 792
guar@@ 789
Ecco 788
uro 787
sarebbe 786
lu@@ 783
c'@@ 782
differ@@ 782
voglio 781
ante. 780
propri@@ 780
mento 778
cat@@ 778
milioni 777
ere@@ 772
rebbero 772
fut@@ 771
primo 770
ann@@ 769
giorno 769
rac@@ 768
rat@@ 767
bili 766
5 766
posto 765
anzi@@ 764
conosc@@ 763
iment@@ 761
sist@@ 759
chio 758
speci@@ 758
Pen@@ 757
edi@@ 757
si. 756
pes@@ 756
ai@@ 755
controll@@ 754
spon@@ 753
andare 753
esist@@ 753
si, 752
atter@@ 751
Così 751
ran@@ 750
cl@@ 750
pos@@ 748
atto 746
termin@@ 745
forse 745
insegn@@ 745
dobbiamo 745
m 744
St@@ 743
", 742
abor@@ 742
fuori 742
super@@ 740
itt@@ 739
nuov@@ 739
scoper@@ 738
capi@@ 737
molte 737
stati 735
sei 735
tiv@@ 735
verso 734
evamo 733
dai 732
ggi@@ 732
informa@@ 732
entr@@ 731
19@@ 729
ace 729
potrebbe 729
volte 728
doman@@ 727
macch@@ 726
uro@@ 725
ob@@ 724
grado 723
già 723
momento 723
dav@@ 722
ettiv@@ 720
bar@@ 720
ort@@ 720
attraverso 719
diff@@ 719
veramente 718
lin@@ 717
Ora, 716
dice 715
univer@@ 715
avete 715
detto 715
enze 714
fl@@ 714
sce 711
qualcuno 711
leg@@ 707
arsi 706
luc@@ 703
medi@@ 702
credo 701
nuovo 700
abil@@ 700
bambini 698
contr@@ 697
ce@@ 697
cell@@ 696
allo 695
prendere 695
Ora 694
Al@@ 694
mondo. 693
emo 692
to. 692
a: 691
ti. 691
sen@@ 690
w@@ 689
tura 689
rete 689
sero 689
zione, 689
ente, 688
ene 688
parlare 686
tanto 686
Grazie. 686
posi@@ 686
dev@@ 685
donne 685
atori 684
Av@@ 682
fu 682
spazi@@ 680
ativ@@ 678
ore, 678
ssi@@ 677
Lo 676
ini@@ 674
enz@@ 674
é@@ 673
segn@@ 673
ati. 672
etro 671
dare 671
% 666
grandi 663
dir@@ 663
ati, 662
ulti@@ 661
possibil@@ 661
pensare 660
ord@@ 659
ata. 658
Pot@@ 658
importante 657
ri 656
ì. 655
cap@@ 655
stessa 654
10 654
ang@@ 652
dett@@ 652
anni. 652
materi@@ 650
enti@@ 650
rel@@ 650
quale 649
ore. 648
gio@@ 648
scri@@ 648
ante, 647
peri@@ 647
Quindi, 646
caus@@ 644
alcune 643
dato 643
secon@@ 643
stu@@ 642
program@@ 641
far 641
mett@@ 637
esperi@@ 637
avuto 637
otten@@ 637
cin@@ 634
Io 634
tutta 634
t 634
san@@ 634
aspett@@ 633
complet@@ 632
fanno 631
amp@@ 630
lav@@ 630
fron@@ 629
famigli@@ 629
siano 629
acqu@@ 629
tto@@ 628
usare 628
not@@ 627
colt@@ 627
amo, 626
ù@@ 626
ove 626
aia 624
sar@@ 623
asi 623
k 622
colo 619
te, 618
mo, 618
azz@@ 617
enza. 617
sch@@ 617
oggi 616
torn@@ 616
vent@@ 615
sarà 615
uti@@ 614
quasi 612
trovare 612
via 611
bbe 610
tecnologia 609
ona 609
incredi@@ 608
ò@@ 607
org@@ 606
20@@ 605
specie 605
Ch@@ 605
popol@@ 603
2 603
forz@@ 603
sistem@@ 602
ate, 602
risult@@ 602
ei 601
oper@@ 599
enza, 598
avamo 598
probabil@@ 597
vere 597
C'è 595
pianet@@ 595
dat@@ 594
forma 592
citt@@ 592
tecnologi@@ 591
prend@@ 590
0 590
penso 589
problem@@ 588
acqua 588
avevo 587
casa 587
fel@@ 586
Di@@ 585
gia 584
atore 583
inc@@ 583
cir@@ 583
mo. 582
ete, 582
città 581
societ@@ 581
dalle 580
Era 579
ani@@ 579
inf@@ 579
maggior 579
tto 577
polit@@ 576
glob@@ 576
fos@@ 576
ordin@@ 575
state 575
vor@@ 575
quattro 574
raggi@@ 574
prodo@@ 574
Pos@@ 574
Con@@ 574
Cosa 573
’@@ 572
cul@@ 572
lui 571
seri@@ 570
natur@@ 570
attiv@@ 570
ì 569
abb@@ 569
abbastanza 569
rest@@ 567
amo. 567
contro 565
lo, 565
miliar@@ 565
tratt@@ 565
quali 565
gre@@ 564
erà 564
sull'@@ 564
oggi@@ 562
mettere 561
numero 560
uom@@ 558
chied@@ 558
compl@@ 558
mente, 558
aria 558
amenti 557
persona 557
vengono 556
erra 556
prim@@ 556
piac@@ 555
giov@@ 554
oni 553
posta 553
h 553
quelli 553
gni 553
spi@@ 552
Gu@@ 552
allora 551
problemi 551
arvi 551
en 550
cervello 549
sost@@ 549
esper@@ 549
enor@@ 548
condivi@@ 547
settiman@@ 546
consider@@ 546
Un@@ 545
orno 545
sulle 544
erò 543
viamo 543
Stati 542
libr@@ 542
ogg@@ 542
Nel 540
sem@@ 539
emente 538
posso 538
lor@@ 538
chiest@@ 537
cri@@ 537
nas@@ 536
osci@@ 536
ner@@ 536
realizz@@ 536
k, 536
organizz@@ 535
svilupp@@ 533
osserv@@ 533
riusci@@ 533
insieme 532
fr@@ 532
tiamo 531
esempio, 530
pubbl@@ 530
net@@ 530
sit@@ 529
accad@@ 529
de. 529
secondo 528
gran@@ 528
art@@ 527
ades@@ 526
Cre@@ 526
facendo 526
metter@@ 526
Ci@@ 525
particol@@ 525
sui 523
ette 523
vist@@ 522
Gli 522
suoi 521
certo 521
vostro 520
perch@@ 519
princi@@ 519
progett@@ 519
da@@ 517
ere, 517
ga 517
sotto 517
lun@@ 516
dar@@ 516
50 515
tri@@ 515
senso 515
risp@@ 515
x@@ 515
di, 514
se, 514
ori, 513
uta 511
amente. 511
esempio 510
bo 510
ung@@ 509
cc@@ 509
tratta 509
gono 509
Voglio 508
spieg@@ 508
tele@@ 508
ate. 507
Beh, 507
sim@@ 507
malatti@@ 506
Che 506
.000 506
tor@@ 506
200@@ 505
present@@ 505
liber@@ 505
bri@@ 505
amb@@ 502
Quello 501
Pro@@ 501
avevano 501
pic@@ 501
be@@ 501
pet@@ 500
ora, 500
ta@@ 499
mondo, 499
endere 499
pazi@@ 499
ata, 498
me, 498
scel@@ 498
sembr@@ 498
vedete 497
invece 497
ss@@ 497
scor@@ 497
americ@@ 496
prat@@ 496
ban@@ 495
grazi@@ 495
Su@@ 495
aver 495
necess@@ 495
arono 495
sb@@ 494
reste 494
ù 493
ello 493
men@@ 492
messo 492
signific@@ 492
raccont@@ 491
,@@ 491
vita. 491
ere. 491
Gi@@ 490
4 490
comport@@ 490
rappresent@@ 489
arci 489
alc@@ 489
domanda 489
Ben@@ 488
scal@@ 488
fre@@ 487
ost@@ 487
significa 487
h, 487
quell@@ 487
deve 486
20 486
vero 485
ovvi@@ 485
bamb@@ 485
fici@@ 485
energia 485
ella 485
prof@@ 484
ricerca 481
possibile 480
luo@@ 480
solu@@ 479
capacità 478
uso 478
Quest@@ 478
riguar@@ 477
bre@@ 477
mal@@ 476
Com@@ 476
lì 476
colleg@@ 475
ram@@ 475
troppo 474
di. 474
durante 474
den@@ 474
Ri@@ 473
bene 473
dell@@ 473
unqu@@ 473
prossi@@ 473
Vi 473
oria 472
vostra 472
ute 472
loc@@ 472
ron@@ 472
ina, 472
cit@@ 471
motiv@@ 471
de, 471
e' 471
corso 470
meglio 470
elet@@ 470
mas@@ 469
vir@@ 469
paes@@ 469
svilu@@ 468
student@@ 468
lan@@ 468
simi@@ 468
utilizz@@ 468
doll@@ 467
volt@@ 467
tal@@ 467
merc@@ 466
fa, 466
caso 466
pan@@ 466
elle 466
livello 465
cambiare 465
lim@@ 464
sent@@ 463
veloc@@ 463
uomo 463
gruppo 463
ghi 463
capit@@ 462
ori. 462
chiar@@ 462
sin@@ 462
ricer@@ 461
occup@@ 461
iniziato 460
visi@@ 460
nello 460
siete 460
piuttosto 459
costruire 459
ultimi 459
progetto 458
asp@@ 458
gno 457
abbia 457
defin@@ 456
semplicemente 456
ana 455
serv@@ 454
emo@@ 454
esso. 454
remo 454
Sap@@ 453
servi@@ 453
"S@@ 453
piccolo 453
cellu@@ 453
Ha 452
osc@@ 452
pover@@ 452
pubblic@@ 452
ché 452
quei 450
bb@@ 450
sappiamo 450
ig@@ 450
sembra 449
ecco 448
bl@@ 446
lungo 446
Grazie 446
difficile 446
rà 444
dire, 443
3 443
lingu@@ 443
età 442
ricor@@ 442
sfi@@ 442
durre 442
anti. 442
comunità 441
aper@@ 441
poter 441
pad@@ 439
affron@@ 438
lei 438
possa 438
cia 438
bambin@@ 437
viol@@ 437
avigli@@ 437
oltre 437
azien@@ 436
oni@@ 436
preso 436
facciamo 436
oro 436
y, 435
8 435
Questi 435
ito, 435
spesso 434
zio 434
ici, 434
nuova 433
cinque 433
comb@@ 432
arlo 432
zia 432
bli@@ 432
econ@@ 431
cen@@ 431
ener@@ 430
For@@ 430
innov@@ 429
ill@@ 429
questo, 429
enti. 429
conto 429
mem@@ 429
gover@@ 428
risol@@ 428
Indi@@ 428
ici. 428
questo. 427
appena 427
inci@@ 426
sosten@@ 426
ina. 425
anc@@ 425
non@@ 425
diversi 424
off@@ 424
centr@@ 424
agg@@ 423
oso 423
ator@@ 423
30 423
Poi 423
agn@@ 423
portare 423
nat@@ 422
icamente 422
tta 420
ont@@ 419
Inter@@ 417
movi@@ 416
vis@@ 416
er, 416
cli@@ 416
fe@@ 415
question@@ 414
me. 414
j@@ 413
prote@@ 413
hi@@ 413
dur@@ 412
rec@@ 410
inten@@ 410
g 409
'è 406
dete 406
000 406
togra@@ 405
positi@@ 405
ppi@@ 405
ea 404
ement@@ 404
fantast@@ 404
vers@@ 404
quant@@ 404
computer 402
glio 401
perio@@ 400
Im@@ 400
utt@@ 400
mort@@ 398
base 397
cerv@@ 397
situ@@ 395
0, 394
6 392
diverse 392
imp@@ 392
atori@@ 392
mad@@ 392
din@@ 391
invest@@ 391
el 391
sur@@ 391
dimen@@ 390
condi@@ 389
ribu@@ 389
New 388
biso@@ 388
desi@@ 387
sta@@ 387
pp@@ 384
da, 384
mili@@ 384
accor@@ 383
♪ 383
mani@@ 381
ate@@ 379
appar@@ 378
arri@@ 375
atu@@ 375
er. 375
sett@@ 374
abbi@@ 373
uni@@ 372
individu@@ 372
cur@@ 372
gest@@ 371
iv@@ 369
ane 369
ich@@ 369
ge@@ 368
aver@@ 367
economi@@ 367
TED@@ 367
grup@@ 367
le. 366
sens@@ 366
ar 366
oce@@ 364
1 364
sing@@ 363
tur@@ 362
mess@@ 361
conv@@ 360
gin@@ 359
r 358
influ@@ 357
rius@@ 357
maggi@@ 357
econom@@ 356
regi@@ 355
vari@@ 355
medic@@ 355
as 354
riv@@ 354
Ar@@ 354
med@@ 353
industri@@ 353
pal@@ 351
sare@@ 350
bbero 350
Unit@@ 349
mis@@ 348
letter@@ 348
num@@ 347
Mar@@ 346
ero@@ 346
comput@@ 345
intellig@@ 345
stre@@ 345
ign@@ 344
razi@@ 344
micro@@ 344
ture 343
biamo 341
scar@@ 341
mill@@ 341
volu@@ 340
ure@@ 339
Par@@ 339
alist@@ 339
[@@ 339
100 337
7 336
lon@@ 336
des@@ 336
gro@@ 335
opportun@@ 334
sh@@ 333
d, 331
solut@@ 331
che@@ 331
canc@@ 330
mac@@ 329
ppo 328
fis@@ 328
Jo@@ 327
Yor@@ 327
s, 325
az@@ 325
carb@@ 325
ele@@ 324
possi@@ 324
k. 323
fortun@@ 323
forni@@ 322
ice 322
og@@ 322
clu@@ 321
af@@ 321
sue 320
00@@ 318
perf@@ 315
realt@@ 315
th@@ 314
invol@@ 313
scen@@ 312
est 312
fav@@ 311
fun@@ 311
..@@ 310
robot 310
Ne@@ 310
e." 310
illu@@ 309
tar@@ 308
vide@@ 308
respon@@ 307
invent@@ 306
rem@@ 305
ave 304
que 304
us 303
ou@@ 303
Co@@ 303
moment@@ 301
essa 300
le, 299
ession@@ 297
democ@@ 297
parti@@ 296
media 296
tec@@ 295
norm@@ 294
la@@ 294
inv@@ 294
Vi@@ 291
Americ@@ 291
olo@@ 291
dollar@@ 290
Cos@@ 290
anto 290
ing 289
O 289
prog@@ 288
ologi@@ 285
tim@@ 284
educ@@ 284
matt@@ 283
Le@@ 282
y. 282
15 281
ak@@ 280
b 280
s. 278
preci@@ 277
ase 277
we@@ 275
scienti@@ 275
digit@@ 275
video 273
archit@@ 273
into 273
Afric@@ 273
plor@@ 273
lev@@ 272
] 272
ile 271
or 271
fam@@ 270
ppor@@ 270
d. 270
govern@@ 269
civi@@ 269
clas@@ 268
blo@@ 268
emer@@ 267
Africa 267
sign@@ 265
sof@@ 265
qui@@ 265
priv@@ 264
Bi@@ 264
stor@@ 264
p 263
ece 262
nor@@ 262
Uni@@ 262
plo@@ 258
der 258
se. 258
bor@@ 257
vill@@ 256
reli@@ 256
insiem@@ 256
Y@@ 256
o-@@ 255
gar@@ 255
equi@@ 254
9 254
pul@@ 254
spe@@ 251
vostr@@ 251
moder@@ 250
progre@@ 250
am 248
ancor@@ 248
ust@@ 247
ose 247
asi@@ 247
"O@@ 247
Dav@@ 246
DN@@ 245
intern@@ 244
es 243
Z@@ 242
lit@@ 242
40 242
ge 241
descri@@ 240
gir@@ 240
design@@ 239
Euro@@ 239
radi@@ 239
Is@@ 238
Fran@@ 238
pub@@ 237
one, 236
pat@@ 235
design 234
ame 233
be 232
ific@@ 232
net 231
ol 231
stic@@ 231
CA: 229
ester@@ 228
Goo@@ 228
duc@@ 226
occu@@ 226
nuc@@ 225
x 224
sm@@ 223
stat@@ 223
del@@ 223
get@@ 222
nell@@ 221
terri@@ 221
ow@@ 220
fem@@ 217
ì@@ 217
fur@@ 217
Chri@@ 217
ature 215
Be@@ 214
10@@ 214
squ@@ 214
compet@@ 214
rin@@ 213
Ro@@ 213
tit@@ 212
gam@@ 211
!@@ 211
cro@@ 211
ative 211
piamo 210
las@@ 209
fort@@ 209
sugg@@ 209
à@@ 208
oo@@ 206
esempi@@ 206
attraver@@ 205
one. 205
liv@@ 204
dro@@ 203
stri@@ 202
tric@@ 200
tw@@ 198
velo@@ 198
roc@@ 197
Re@@ 197
Amer@@ 197
anis@@ 196
bal@@ 193
an, 192
is 191
qualc@@ 191
capac@@ 190
Ma@@ 188
ue 188
fa@@ 188
on, 187
X@@ 187
perc@@ 187
esem@@ 187
over@@ 186
et 186
if@@ 185
son 185
ine, 183
od@@ 183
bac@@ 182
lat@@ 180
ità@@ 180
c 179
intell@@ 179
Sh@@ 177
ph@@ 176
stre 176
tran@@ 176
ex@@ 176
evi@@ 174
infor@@ 173
gl@@ 173
pe 172
En@@ 172
ze 171
data 170
lar@@ 170
ard 170
bra@@ 169
sul@@ 169
robo@@ 168
sequ@@ 166
Vo@@ 166
olog@@ 166
let@@ 165
sub@@ 161
“@@ 160
S 160
dd@@ 159
produc@@ 158
ingu@@ 158
biolog@@ 158
natu@@ 156
consi@@ 156
time 156
Li@@ 154
ve. 154
%@@ 152
ah@@ 152
rap@@ 151
inst@@ 151
omi@@ 150
utili@@ 150
sull@@ 150
D 149
tre@@ 149
foll@@ 148
tell@@ 148
man 147
Th@@ 147
No@@ 146
?@@ 146
– 146
id 145
bero 143
sum@@ 142
star@@ 142
contro@@ 142
V 141
he@@ 140
ve, 139
comm@@ 138
an. 136
famili@@ 136
t. 135
indi, 134
fant@@ 134
t, 134
stand@@ 133
ga@@ 131
ash@@ 130
C 130
ki@@ 128
eve 126
ey 125
prob@@ 124
up@@ 124
busin@@ 124
lead@@ 124
," 123
auti@@ 123
dise@@ 123
ho@@ 122
Af@@ 122
cogn@@ 122
Gre@@ 121
percent@@ 121
ear@@ 121
f 121
sup@@ 120
ess 120
aw@@ 119
gram@@ 119
ill 119
sto@@ 119
azi@@ 118
es, 118
So 118
ili@@ 117
ep@@ 117
ity 116
line 116
OK@@ 116
muc@@ 115
at 115
of 114
ack@@ 114
nam@@ 113
it 113
spec@@ 113
bro@@ 113
z 112
in, 112
inclu@@ 111
ach@@ 111
m, 110
clim@@ 110
ry 108
wit@@ 108
en, 107
elec@@ 107
contin@@ 106
inform@@ 105
on. 105
case 104
° 104
pati@@ 103
L 102
ing, 101
ure 101
land@@ 101
care 101
oun@@ 101
gett@@ 101
ke 100
” 99
mic@@ 99
/@@ 99
lob@@ 99
bir@@ 98
ste@@ 98
all 98
e-@@ 97
m. 97
har@@ 97
es. 96
ka@@ 96
nov@@ 96
us, 95
char@@ 95
The 95
ey@@ 94
pian@@ 94
ifica 94
ir 94
boo@@ 94
wa@@ 93
pena 92
enc@@ 90
her@@ 90
”@@ 90
wi@@ 89
dri@@ 89
tecnolo@@ 89
T 89
S. 88
um 87
ick@@ 87
pre 86
us. 85
incre@@ 84
put@@ 84
amer@@ 82
dig@@ 82
more 82
ing. 81
as, 80
kin@@ 79
ei@@ 79
fir@@ 79
social 79
wor@@ 79
Q@@ 79
of@@ 78
attr@@ 77
We@@ 77
Wh@@ 76
selv@@ 76
use 76
war@@ 76
figu@@ 75
X 75
w 75
list@@ 74
our@@ 74
les 73
minut@@ 71
ong@@ 71
q@@ 71
sour@@ 71
inste@@ 70
ational 70
ter 70
]@@ 70
ong 70
n, 68
en. 67
nolo@@ 67
mark@@ 66
book 66
dy 65
our 65
age 64
ers 64
abbast@@ 64
setti@@ 64
You@@ 63
the 63
by 63
fro@@ 63
G 62
ever@@ 62
ack 62
get 62
dra@@ 62
B 61
chil@@ 61
ail@@ 61
ss 61
dre@@ 61
:@@ 60
&@@ 60
ause 60
ef@@ 59
ship 59
organi@@ 58
real@@ 58
sk@@ 58
fri@@ 58
eng@@ 58
tive 58
— 57
A: 57
v 56
st 56
sec@@ 56
ation 55
;@@ 55
opl@@ 55
ch 55
altr@@ 55
et. 54
cco 54
ld 54
's 54
’ 52
ance 52
it, 52
ain@@ 52
sai@@ 52
Grazi@@ 51
ans 51
al. 49
al, 49
ver 49
U 49
plan@@ 49
M 49
ary 48
trans@@ 48
imes 48
♫@@ 48
ast 47
diffici@@ 47
R 46
up 46
ke@@ 46
arch@@ 46
q 45
igli@@ 45
shi@@ 45
ow, 45
ent 44
bec@@ 44
s: 44
king 43
om 43
ther@@ 43
It@@ 43
sel@@ 43
pt@@ 42
low@@ 42
work 42
my 42
back 42
ago, 41
ans@@ 41
ood 40
plac@@ 40
demo@@ 40
ft 39
th 39
ly 39
P 39
bus@@ 39
th, 39
create 39
et, 39
"I 39
n. 39
ú 38
set 38
in. 38
hu@@ 38
end 37
pla@@ 37
ic 37
alcun@@ 37
ence 37
svi@@ 36
ion 36
«@@ 36
for 36
the@@ 35
litt@@ 35
sult@@ 35
gh 35
indu@@ 35
y? 34
ool@@ 34
out@@ 34
open 34
ll 34
ful@@ 33
ds 33
than 33
win@@ 33
long@@ 33
ut 32
top 32
,000 32
ks 32
ous@@ 32
K 31
sy@@ 31
sure 31
@@@ 31
$@@ 31
or, 30
und 30
ool 30
É 30
even 30
ess. 30
ther 29
ant 29
tech@@ 28
od 28
ess, 28
put 28
N 28
it. 28
red 28
bet@@ 27
nec@@ 27
all, 27
ts 27
he 27
TE@@ 27
ell 27
rou@@ 26
tion 26
acro@@ 26
ch. 26
attro 26
ow 26
dow@@ 25
lear@@ 25
jec@@ 25
talk 25
ish 25
wat@@ 25
… 25
á 24
coun@@ 24
alth 24
ber 23
right 23
ome 23
is, 23
ation, 23
» 23
Ѐ 23
ves 22
ght 22
ical 22
larg@@ 22
any@@ 22
age, 22
utto@@ 22
ity, 22
jo@@ 22
#@@ 22
icul@@ 21
low 21
lif@@ 21
had 21
ild@@ 21
_@@ 21
now@@ 21
cho@@ 20
Let@@ 20
ren 20
is. 20
sion 20
her 20
also 20
Tran@@ 20
side 19
ity. 19
F 19
kill@@ 19
hy@@ 19
ak 19
well 19
á@@ 19
ed, 19
Y 19
ers, 19
@@ 19
ones 19
bit 19
bill@@ 18
ation@@ 18
ory 18
ates 18
ating 18
wh@@ 18
ach 18
men 18
+@@ 17
work. 17
ep 17
imag@@ 17
$ 17
vie@@ 17
oul@@ 17
wee@@ 17
show 17
í@@ 17
ble 16
loo@@ 16
air@@ 16
H 16
hum@@ 16
ain 16
insi@@ 15
ral 15
í 15
°@@ 15
 @@ 15
ps 15
new@@ 15
ok 14
high@@ 14
ment 14
act@@ 14
j 14
up, 14
time. 14
+ 14
ich 14
ness 14
) 14
ou 14
»@@ 14
reali@@ 13
= 13
ó 13
ç@@ 13
ous 13
th. 13
over 13
show@@ 13
sive 13
stem@@ 13
way 13
ye@@ 13
him@@ 12
time, 12
ally 12
blem@@ 12
hal@@ 12
st, 12
run@@ 12
how 12
ence, 12
int 12
read@@ 12
ust 12
s? 12
cover@@ 12
ement 11
ank 11
spac@@ 11
my@@ 11
tion@@ 11
ins 11
ms 11
any 11
mov@@ 11
U.@@ 11
hav@@ 11
shar@@ 11
work@@ 11
reas@@ 11
chang@@ 11
ds, 11
ö@@ 11
mach@@ 11
we 10
One 10
=@@ 10
big 10
out 10
hop@@ 10
uttosto 10
ght. 10
ght, 10
let 9
single 9
hou@@ 9
ell, 9
/ 9
Q 9
off 9
now 9
hand@@ 8
up. 8
well@@ 8
ever 8
them@@ 8
wal@@ 8
start@@ 8
ed. 8
ns 8
My 8
hard 8
done 8
pt 8
ation. 8
hap@@ 8
ã@@ 8
ó@@ 8
Z 8
ect@@ 8
United 8
well, 8
way, 8
­@@ 8
own 7
e's 7
able 7
lot 7
gy 7
play 7
you@@ 7
commun@@ 7
ple 7
ty@@ 7
ys 7
alk 7
ations 7
ind 7
vidu@@ 7
its 7
stem 7
ily 7
´@@ 7
ings 7
hom@@ 7
pho@@ 7
hel@@ 7
day 7
ition 7
ken 7
old 6
see 6
act 6
J 6
ly. 6
head@@ 6
ics 6
Sub@@ 6
ly, 6
ther, 6
What 6
ers. 6
ñ@@ 6
ds. 6
she 6
day. 6
You 6
W 6
ding 6
down 5
*@@ 5
was@@ 5
“ 5
(@@ 5
etter 5
lik@@ 5
envi@@ 5
ght@@ 5
She 5
res 5
try 5
ound 5
ø@@ 5
clo@@ 5
some 5
Now 5
È@@ 5
ould 5
ution@@ 5
ect 5
world 5
portun@@ 4
face 4
high 4
full@@ 4
food 4
room@@ 4
very 4
have 4
We 4
new 4
call@@ 4
อ@@ 4
with 4
from 4
langu@@ 4
that 4
can 4
ext@@ 4
made 4
struc@@ 4
bod@@ 4
exper@@ 4
ors 4
under@@ 4
point@@ 4
ask 4
als 3
¼ 3
light 3
tions 3
problem 3
think 3
—@@ 3
_ 3
know@@ 3
beli@@ 3
global 3
` 3
read 3
will 3
this 3
look 3
It's 3
live 3
world@@ 3
if 3
ded 3
ying 3
thing@@ 3
not 3
ated 3
where 3
ü@@ 3
human 3
´ 3
school@@ 3
ū@@ 3
story 3
ons 3
point 3
ses 3
hun@@ 3
him 3
life 3
can't 3
ets 3
ning 3
call 3
ition@@ 3
you 3
lem 3
was 3
projec@@ 2
writ@@ 2
your 2
phy@@ 2
each 2
ting 2
kind 2
happ@@ 2
won@@ 2
It 2
thin@@ 2
four 2
²@@ 2
working 2
ć@@ 2
ful 2
ven 2
grand@@ 2
most 2
tty 2
ë@@ 2
certa@@ 2
ร@@ 2
่@@ 2
direc@@ 2
form 2
They 2
next 2
only 2
about 2
These 2
I'@@ 2
ence. 2
feel@@ 2
ú@@ 2
ely 2
This 2
exp@@ 2
told 2
rese@@ 2
way. 2
friend@@ 2
º@@ 2
technolo@@ 2
actu@@ 2
ply 2
self 2
like 2
his 2
throu@@ 2
which 2
information 2
^ 2
ŧ@@ 2
thing 2
right@@ 2
thre@@ 2
ä@@ 2
everything 2
º 2
when 2
hist@@ 2
​@@ 2
ѐ 1
want 1
^@@ 1
€ 1
he's 1
brain 1
long 1
hour@@ 1
nex@@ 1
that, 1
take 1
know 1
see@@ 1
through 1
what 1
might 1
like, 1
coming 1
them. 1
question 1
İ@@ 1
‘@@ 1
́@@ 1
I'll 1
sort 1
year@@ 1
place 1
comes 1
thou@@ 1
¥ 1
out. 1
ย 1
ย@@ 1
body 1
ities 1
them 1
but 1
with@@ 1
technology 1
wonder@@ 1
cour@@ 1
person 1
For 1
ready 1
got 1
want@@ 1
﻿@@ 1
kno@@ 1
part 1
wom@@ 1
« 1
feel 1
first 1
bbiamo 1
other 1
If 1
tion. 1
Well, 1
–@@ 1
such 1
kes 1
answ@@ 1
power@@ 1
ampl@@ 1
good 1
And 1
² 1
public 1
ʿ@@ 1
But 1
things 1
too 1
having 1
it's 1
say 1
ā@@ 1
system@@ 1
every 1
help 1
make 1
water 1
* 1
buil@@ 1
[ 1
ê@@ 1
ically 1
ï@@ 1
™ 1
â@@ 1
˚ 1
indi 1
Ó@@ 1
@ 1
other@@ 1
don't 1
© 1
start 1
ent. 1
É@@ 1
ys, 1
out, 1
  1
happen@@ 1
`@@ 1
may 1
across 1
whe@@ 1
love 1
less 1
kids 1
youn@@ 1
used 1
their 1
tell 1
n't 1
best 1
³@@ 1
did 1
¼@@ 1
Now, 1
self@@ 1
When 1
ths 1
life. 1
I'm 1
€@@ 1
ë 1
ents 1
ople 1
…@@ 1
zed 1
