the 77985
to 49803
of 45739
and 45380
a 44048
in 32991
s 31788
, 30855
that 30002
. 28965
I 26144
is 23708
ing 21770
you 19835
e@@ 18318
ed 18118
we 18076
And 16571
re@@ 16438
s@@ 15810
es 15720
h@@ 15431
d@@ 15427
y 15029
it 14982
in@@ 14391
this 14299
b@@ 13611
p@@ 13567
y@@ 13420
s, 13411
on 13171
e, 12960
t 12893
c@@ 12689
w@@ 12561
o@@ 12538
f@@ 12533
g@@ 12410
a@@ 12260
e. 12228
are 12061
t@@ 11716
s. 11686
was 11614
d 11521
for 11404
i@@ 11297
m@@ 10710
an 10641
have 10510
al 10453
-- 10033
st@@ 9984
al@@ 9871
u@@ 9720
n@@ 9653
l@@ 9608
with 9341
ar@@ 9282
de@@ 9184
se@@ 8977
r@@ 8941
er 8775
at 8771
ch@@ 8731
-@@ 8646
as 8480
er@@ 8376
en@@ 8361
un@@ 8314
k@@ 8311
they 8227
can 8168
or@@ 8052
one 7916
be 7909
about 7858
at@@ 7840
or 7758
what 7747
e 7743
all 7570
ro@@ 7479
li@@ 7458
ic@@ 7412
th@@ 7406
S@@ 7337
So 7076
not 7024
"@@ 6991
? 6955
an@@ 6901
m 6887
on@@ 6773
as@@ 6693
y. 6538
our 6453
ly 6416
y, 6388
my 6350
ex@@ 6292
v@@ 6126
en 6095
le@@ 6087
A@@ 6084
to@@ 6064
from 6041
el@@ 5990
ou@@ 5985
ac@@ 5960
it@@ 5935
do 5876
sh@@ 5849
M@@ 5842
si@@ 5801
di@@ 5788
: 5716
like 5695
et@@ 5653
ri@@ 5651
mo@@ 5602
but 5582
su@@ 5499
it's 5479
so 5466
ec@@ 5340
people 5170
just 5118
be@@ 5110
wh@@ 5097
ag@@ 5087
es, 4956
vi@@ 4953
con@@ 4928
The 4921
out 4882
n 4872
these 4849
if 4847
ad@@ 4831
very 4804
But 4802
am@@ 4787
em@@ 4774
ve 4769
ma@@ 4661
by 4646
es. 4543
lo@@ 4537
co@@ 4525
B@@ 4519
ll@@ 4500
O@@ 4471
es@@ 4469
h 4466
ent@@ 4461
k 4445
bo@@ 4436
ab@@ 4424
pl@@ 4392
C@@ 4372
going 4287
ation 4280
ra@@ 4279
ate 4240
king 4190
ar 4182
because 4181
per@@ 4180
po@@ 4173
when 4173
pro@@ 4164
he 4156
fi@@ 4142
We 4111
's 4091
more 4087
up 4079
E@@ 4060
se 4032
p 4024
had 4024
le 4023
D@@ 4011
ity 4002
H@@ 4000
wor@@ 3964
im@@ 3952
how 3945
their 3940
ent 3930
sp@@ 3913
were 3884
get 3849
ne@@ 3841
your 3839
ph@@ 3836
d, 3816
ap@@ 3793
ol@@ 3774
would 3774
G@@ 3740
mi@@ 3740
il@@ 3737
there 3722
." 3715
which 3711
c 3698
us@@ 3680
P@@ 3675
L@@ 3664
1@@ 3662
is@@ 3622
think 3588
really 3575
ur@@ 3552
me 3550
T@@ 3546
who 3535
gh@@ 3528
for@@ 3495
see 3465
I'm 3418
z@@ 3415
tr@@ 3390
N@@ 3335
op@@ 3281
It's 3270
This 3241
ther@@ 3232
ter@@ 3227
ds 3227
F@@ 3186
some 3175
Th@@ 3167
has 3155
qu@@ 3152
ver@@ 3133
ti@@ 3115
where 3111
them 3095
into 3072
om@@ 3069
l 3053
us 3044
ta@@ 3042
bi@@ 3031
gi@@ 3015
thing 3011
ul@@ 3004
don't 2993
ght 2983
do@@ 2969
ut@@ 2961
It 2954
W@@ 2951
ing, 2949
we@@ 2940
that's 2915
then 2879
all@@ 2878
gu@@ 2853
he@@ 2848
way 2846
fac@@ 2842
t, 2830
actually 2819
You 2811
o 2804
will 2800
com@@ 2797
g 2790
know 2776
ts 2759
t. 2736
could 2718
me@@ 2701
ing. 2683
hi@@ 2680
make 2678
want 2675
est 2674
sa@@ 2661
ment@@ 2661
d. 2658
ther 2653
been 2645
able 2644
wa@@ 2640
j@@ 2638
R@@ 2632
cre@@ 2588
pre@@ 2555
ad 2536
tu@@ 2532
de 2519
ers 2508
ed@@ 2506
go 2502
most 2496
av@@ 2496
min@@ 2489
ks 2486
ist@@ 2480
other 2475
I@@ 2466
re 2464
her@@ 2437
and@@ 2425
enc@@ 2418
x@@ 2417
than 2398
so@@ 2398
tion 2387
fe@@ 2374
est@@ 2365
w 2352
J@@ 2351
you@@ 2341
ally 2317
st 2308
ked 2301
ical 2280
those 2273
our@@ 2272
pi@@ 2271
k, 2265
things 2258
come 2256
it. 2244
up@@ 2230
bl@@ 2227
pa@@ 2224
thou@@ 2222
ant@@ 2215
iti@@ 2213
ing@@ 2211
no@@ 2207
age 2188
ine 2179
They 2169
ch 2154
ence 2151
oo@@ 2147
ely 2140
new 2130
little 2124
something 2122
et 2121
a, 2121
his 2104
first 2100
str@@ 2086
In 2083
got 2082
mon@@ 2080
ess 2075
we're 2074
look 2073
car@@ 2072
ion@@ 2070
thing@@ 2070
par@@ 2068
ed, 2068
te@@ 2066
also 2047
Y@@ 2036
der@@ 2026
ci@@ 2020
no 2016
K@@ 2013
ed. 2009
man@@ 1996
ated 1996
time 1989
th 1989
years 1983
only 1978
two 1968
sc@@ 1962
coun@@ 1948
enti@@ 1947
even 1936
ded 1931
ste@@ 1929
over 1913
need 1902
year@@ 1892
tion@@ 1891
ki@@ 1879
take 1874
ell@@ 1869
ion 1860
sion@@ 1853
much 1853
int@@ 1850
er, 1846
go@@ 1846
now 1836
ous 1818
ce 1816
back 1811
da@@ 1804
sol@@ 1798
ali@@ 1798
kind 1783
oun@@ 1778
e's 1765
der 1765
ice 1756
you're 1751
lot 1739
here 1739
many 1732
world 1730
happen@@ 1729
What 1717
every@@ 1715
ment 1707
gre@@ 1702
ob@@ 1702
ess@@ 1695
she 1695
said, 1667
'@@ 1664
any 1662
there's 1660
work 1656
a. 1650
au@@ 1645
tur@@ 1641
cent@@ 1637
liv@@ 1636
it, 1632
wat@@ 1625
tri@@ 1624
0@@ 1622
end@@ 1618
its 1613
ite 1611
br@@ 1610
el 1608
dis@@ 1607
k. 1607
every 1604
jec@@ 1598
war@@ 1597
old 1595
♫ 1592
r 1586
through 1585
.@@ 1579
Wh@@ 1575
ge 1572
2@@ 1569
pe@@ 1562
mean@@ 1558
gh 1555
use 1554
lear@@ 1545
tim@@ 1539
right 1538
did 1537
la@@ 1529
sur@@ 1526
comp@@ 1516
around 1514
sci@@ 1513
Now, 1511
ful 1504
sy@@ 1501
So, 1499
f 1495
um@@ 1494
different 1493
loo@@ 1488
ic 1484
her 1483
inter@@ 1482
x 1476
they're 1473
being 1469
o, 1469
ber@@ 1469
pla@@ 1466
tra@@ 1464
att@@ 1463
ast@@ 1453
body 1447
ble 1445
put 1443
ev@@ 1437
good 1435
some@@ 1434
ey@@ 1433
any@@ 1433
pri@@ 1427
; 1427
Ch@@ 1426
er. 1425
ying 1425
If 1422
them@@ 1418
ot@@ 1417
day 1416
ght@@ 1415
gen@@ 1414
hav@@ 1405
gro@@ 1403
same 1403
ace 1400
lon@@ 1396
ation@@ 1383
pic@@ 1382
know, 1379
with@@ 1371
ir@@ 1370
oc@@ 1369
sen@@ 1364
pow@@ 1358
cor@@ 1356
part@@ 1350
stu@@ 1347
ron@@ 1347
cl@@ 1339
tal@@ 1338
hel@@ 1334
ally, 1332
gra@@ 1324
ever 1314
A 1313
stor@@ 1312
've 1309
ati@@ 1304
Now 1299
prob@@ 1299
ori@@ 1298
thin@@ 1298
low@@ 1298
anc@@ 1298
lu@@ 1297
fin@@ 1295
know@@ 1295
ang@@ 1294
ber 1287
ai@@ 1282
cu@@ 1281
rit@@ 1279
ni@@ 1278
ell 1274
ating 1273
U@@ 1271
ide@@ 1267
're 1257
down 1257
bra@@ 1256
ll 1256
technolo@@ 1256
I've 1255
called 1254
underst@@ 1251
se, 1248
end 1247
doing 1245
He 1244
Well, 1242
ear@@ 1241
sm@@ 1239
ation, 1238
ted 1234
sel@@ 1232
chang@@ 1226
har@@ 1223
peopl@@ 1215
ation. 1211
ys 1210
ce@@ 1207
you. 1207
pos@@ 1206
wom@@ 1203
ary 1203
I'@@ 1200
human 1199
that, 1198
own 1197
That's 1197
wi@@ 1190
5@@ 1186
red 1182
ant 1181
ning 1179
gg@@ 1176
met@@ 1174
tell 1167
am 1166
three 1165
ru@@ 1161
made 1160
lif@@ 1159
ach@@ 1159
is, 1157
mill@@ 1154
ze 1153
We@@ 1149
find 1149
ways 1148
ding 1147
4@@ 1145
worl@@ 1144
try 1144
why 1139
percent 1131
3@@ 1131
produc@@ 1123
V@@ 1120
lik@@ 1120
started 1119
pr@@ 1119
als 1117
cour@@ 1117
can@@ 1116
pres@@ 1115
" 1114
used 1113
imag@@ 1112
sion 1112
didn't 1110
life 1110
now@@ 1110
ame 1109
gin@@ 1107
sch@@ 1106
cer@@ 1106
sim@@ 1099
ici@@ 1099
ave 1098
ss 1091
?" 1089
give 1087
talk 1087
gy 1080
mor@@ 1079
ture 1079
rel@@ 1078
bas@@ 1077
again@@ 1075
ari@@ 1075
Thank 1073
'll 1071
after 1069
ok 1068
o. 1067
should 1067
TED 1066
bu@@ 1066
coll@@ 1066
plan@@ 1064
hear@@ 1062
beli@@ 1062
buil@@ 1057
form@@ 1053
b 1049
last 1048
say 1046
rec@@ 1046
art@@ 1041
ort@@ 1040
There 1040
might 1038
ly, 1038
ting 1036
en, 1035
read@@ 1035
ke@@ 1031
can't 1024
ations 1023
fun@@ 1023
we've 1022
commun@@ 1020
interest@@ 1018
8@@ 1017
ff@@ 1016
00 1014
,000 1013
went 1012
ves 1010
ous@@ 1004
of@@ 1000
fam@@ 998
nec@@ 993
loc@@ 990
num@@ 988
never 984
kes 984
ere's 982
other@@ 981
self@@ 978
fl@@ 976
speci@@ 976
n't 974
great 973
change 973
't 972
ain@@ 972
mat@@ 971
tre@@ 968
ition@@ 967
off@@ 962
ood 962
ese 960
How 960
still 958
fa@@ 957
son@@ 957
ke 955
ak@@ 953
child@@ 953
St@@ 952
cas@@ 950
me, 950
mu@@ 949
tiv@@ 949
toge@@ 947
big 946
ye@@ 945
icul@@ 944
ance 940
ow@@ 938
tor@@ 938
plac@@ 936
develo@@ 935
was@@ 935
problem@@ 934
struc@@ 934
tt@@ 933
at's 932
cont@@ 927
start 925
that. 921
When 921
rem@@ 918
shi@@ 917
bac@@ 916
19@@ 915
gr@@ 914
show 913
bit 912
came 908
ast 906
fri@@ 903
between 903
fu@@ 899
lar@@ 896
each 895
ust 895
6@@ 893
ght, 892
ey 890
fo@@ 890
bre@@ 889
mov@@ 888
ral 888
dic@@ 888
next 888
dre@@ 887
mar@@ 885
," 877
deci@@ 877
5 875
ity. 874
per 874
9@@ 874
won@@ 873
this. 873
few 872
idea 870
il 870
out@@ 870
part 868
pen@@ 866
bor@@ 865
looking 865
another 864
son 862
ution@@ 862
That 860
act@@ 859
reas@@ 856
ve@@ 855
trans@@ 855
ned 853
eng@@ 853
ole 853
using 852
sit@@ 850
ect 850
say, 849
happ@@ 849
port@@ 848
al, 846
Talk 844
soci@@ 844
better 842
pp@@ 839
7@@ 838
gn@@ 835
ybe 834
acc@@ 831
them. 827
al. 825
e? 825
cur@@ 824
work@@ 824
does 823
vol@@ 823
ep 823
sai@@ 823
pul@@ 822
An@@ 822
exp@@ 821
uc@@ 821
comes 820
tw@@ 820
lin@@ 820
re. 817
re, 816
fre@@ 815
day, 815
show@@ 814
inc@@ 813
system@@ 813
jo@@ 810
doesn't 808
sort 807
secon@@ 806
build@@ 806
gener@@ 804
les 804
eve 803
0 803
found 803
wanted 801
ically 801
int 801
important 801
Subtitles 800
Transcript: 800
less 798
differ@@ 797
spe@@ 795
experi@@ 794
zed 793
dow@@ 792
Because 792
off 792
ome 791
trying 790
ity, 790
may 786
Americ@@ 781
low 780
eff@@ 778
lim@@ 778
clo@@ 778
serv@@ 777
ities 776
ran@@ 776
Afric@@ 775
act 774
call 772
question@@ 771
hand@@ 770
before 770
world. 769
grow@@ 769
proc@@ 768
ings 768
az@@ 766
let@@ 764
mark@@ 763
self 762
inform@@ 762
time, 761
res 760
this, 757
ful@@ 756
exampl@@ 756
ue 755
ure 751
itt@@ 747
ho@@ 745
on, 744
anim@@ 743
possi@@ 743
ener@@ 743
over@@ 743
h, 740
vo@@ 737
net@@ 737
tive 736
the@@ 736
os@@ 735
on. 734
val@@ 730
sub@@ 729
ca@@ 728
ative 724
ational 723
arch@@ 723
fut@@ 722
ack 721
ans@@ 719
pt@@ 719
get@@ 716
ans 714
uman@@ 713
ong 709
cul@@ 705
cap@@ 704
un 704
pol@@ 702
are@@ 697
design@@ 697
ick@@ 695
natu@@ 695
lat@@ 694
asi@@ 690
10 687
ase 687
ach 686
dn't 684
kin@@ 683
stre@@ 683
gett@@ 682
ne 682
mer@@ 682
e-@@ 681
in, 680
bus@@ 679
us, 670
sing@@ 670
person@@ 669
ry 666
land@@ 666
pub@@ 666
ill@@ 665
data 664
ir 660
abil@@ 659
rac@@ 659
duc@@ 657
ten@@ 655
le, 655
le. 654
cell@@ 653
glob@@ 653
desi@@ 651
spi@@ 648
govern@@ 648
eg@@ 645
ement@@ 644
pas@@ 644
ani@@ 641
tec@@ 641
ter 636
alt@@ 635
insi@@ 635
te 633
me. 632
mag@@ 632
gn 628
univer@@ 626
respon@@ 625
ric@@ 623
olog@@ 623
pu@@ 622
! 616
inf@@ 614
cit@@ 613
se. 613
In@@ 611
20@@ 611
atu@@ 610
af@@ 610
mus@@ 609
las@@ 608
educ@@ 605
cam@@ 603
one. 602
medi@@ 601
amp@@ 595
vent@@ 593
col@@ 591
quest@@ 590
ren@@ 585
chi@@ 581
thre@@ 581
dat@@ 575
ore 573
lan@@ 573
ig@@ 565
plic@@ 561
med@@ 560
inv@@ 555
polit@@ 554
start@@ 553
dollar@@ 552
lev@@ 552
sign@@ 552
organi@@ 550
one, 550
ass@@ 547
don@@ 543
den@@ 543
sul@@ 539
Indi@@ 539
compl@@ 538
qui@@ 538
lit@@ 535
prof@@ 534
uro@@ 534
ile 531
fic@@ 531
comput@@ 530
ser@@ 529
vide@@ 528
ge@@ 522
200@@ 520
mem@@ 520
fron@@ 519
dist@@ 515
contro@@ 514
mic@@ 511
ator@@ 508
men@@ 506
fer@@ 506
id@@ 506
Inter@@ 505
not@@ 504
dy 504
20 500
ale 499
i 499
ris@@ 497
hap@@ 495
societ@@ 494
dent@@ 491
sist@@ 490
econ@@ 489
ell, 489
ner@@ 487
por@@ 486
succ@@ 486
cri@@ 484
e: 483
50 482
evol@@ 482
de, 480
org@@ 479
New 477
robo@@ 474
bri@@ 474
under@@ 472
complet@@ 468
do. 468
du@@ 467
ss@@ 467
2 466
ere 466
incredi@@ 465
atter@@ 465
materi@@ 464
fil@@ 464
actu@@ 463
ele@@ 462
pot@@ 461
reg@@ 459
riv@@ 458
if@@ 457
ativ@@ 453
mas@@ 453
rat@@ 453
Ri@@ 452
' 452
Unit@@ 451
they@@ 451
’@@ 451
sti@@ 449
oper@@ 448
nor@@ 444
economi@@ 443
vit@@ 443
ute 441
sin@@ 441
import@@ 440
student@@ 439
incre@@ 439
rag@@ 437
ann@@ 437
sta@@ 437
sic@@ 433
[@@ 433
far@@ 432
comm@@ 430
ill 429
individu@@ 428
Mar@@ 428
so, 424
leg@@ 421
stori@@ 420
ver 420
bil@@ 417
cos@@ 416
tro@@ 416
qual@@ 414
present@@ 414
far 411
seri@@ 410
coul@@ 409
scri@@ 409
vir@@ 408
rou@@ 408
fort@@ 406
vic@@ 405
imp@@ 404
] 402
want@@ 401
ut 398
de. 398
bar@@ 397
... 396
diff@@ 394
stri@@ 393
Al@@ 392
arti@@ 391
aut@@ 391
od 390
30 389
00@@ 388
indu@@ 388
mol@@ 385
tem@@ 384
♪ 384
— 383
star@@ 378
cat@@ 376
vers@@ 376
ram@@ 373
continu@@ 372
aff@@ 370
test@@ 368
computer 364
ank 364
ece 360
togra@@ 357
that@@ 355
sor@@ 354
app@@ 354
ose 351
ulti@@ 350
viol@@ 349
ordin@@ 347
wit@@ 345
non@@ 344
ven@@ 343
ben@@ 341
eri@@ 340
ate, 339
is. 336
Af@@ 335
8 333
innov@@ 333
ett@@ 333
,@@ 331
cir@@ 331
uni@@ 329
ow 327
anti@@ 327
Con@@ 326
fir@@ 321
fel@@ 319
befor@@ 318
are, 318
bet@@ 316
dar@@ 315
intell@@ 312
do, 311
abor@@ 310
state 309
ld 309
4 306
program@@ 305
olo@@ 305
studi@@ 303
aver@@ 301
defin@@ 301
gli@@ 299
TE@@ 297
fro@@ 294
call@@ 292
dur@@ 291
del 289
ate. 288
consi@@ 286
ere, 285
mal@@ 283
iment@@ 283
Be@@ 282
peri@@ 281
ever@@ 281
are. 280
itu@@ 280
1 280
stra@@ 280
tto@@ 278
ople 278
Di@@ 277
ina 272
ssi@@ 271
rest@@ 270
3 266
Pro@@ 265
ament@@ 261
pass@@ 260
S 259
inci@@ 257
ov@@ 256
Z@@ 255
6 255
cost@@ 253
prov@@ 252
super@@ 250
alk 250
disc@@ 247
7 246
stru@@ 244
ved@@ 243
tech@@ 243
Ne@@ 235
grand@@ 235
Su@@ 234
sem@@ 233
D 233
u 227
da 226
ica 224
throu@@ 219
sal@@ 218
zz@@ 217
ini@@ 217
cin@@ 214
diver@@ 213
post@@ 211
ause 210
i, 208
colo@@ 208
ia 205
ere@@ 205
era 200
9 199
amb@@ 198
Un@@ 198
dev@@ 197
viv@@ 194
to, 193
V 193
og@@ 191
ow, 190
ould 189
ific@@ 180
que 180
des@@ 176
sco@@ 175
ove 173
luc@@ 173
ete 172
Per@@ 171
essi@@ 168
ho 168
pag@@ 167
ich 167
lun@@ 166
!@@ 165
la 165
alc@@ 164
Amer@@ 163
It@@ 162
termin@@ 161
possibil@@ 159
cal@@ 158
caus@@ 157
controll@@ 155
no, 150
ma 147
lob@@ 146
fine 143
to. 142
T 138
bile 138
asp@@ 137
lav@@ 136
rap@@ 136
z 134
capac@@ 134
ild@@ 133
X@@ 131
i. 129
ale. 125
omi@@ 122
/@@ 122
nat@@ 120
doll@@ 119
contr@@ 118
pren@@ 118
acci@@ 116
contin@@ 114
ound 114
hum@@ 113
ra 112
tra 112
attr@@ 112
ire 111
mac@@ 110
ero 110
anz@@ 107
Qu@@ 103
tit@@ 103
C 102
a: 102
ampl@@ 102
$@@ 98
ale, 98
guar@@ 97
P 96
due 93
ene 92
O 92
stem@@ 91
sper@@ 90
edi@@ 90
pun@@ 90
occu@@ 90
fos@@ 89
uti@@ 89
infor@@ 88
so. 87
ness@@ 86
propri@@ 86
na 85
con 84
gram@@ 84
kno@@ 83
tras@@ 82
acqu@@ 81
o: 80
etter 80
nex@@ 79
arriv@@ 78
parti@@ 78
scu@@ 78
spon@@ 77
q@@ 77
io 76
sia 76
Q@@ 76
fat@@ 75
All@@ 72
litt@@ 72
abb@@ 70
ta 69
nu@@ 68
ai 67
indi@@ 67
K 66
di 65
é@@ 64
no. 63
M 63
Come 62
ha 62
B 61
ord@@ 61
ambi@@ 61
ano 59
q 59
bell@@ 59
;@@ 57
a? 56
&@@ 56
script@@ 54
]@@ 54
nel 52
ro 51
zi@@ 51
enz@@ 51
?@@ 51
nov@@ 51
bili@@ 51
- 48
ita 48
R 48
pens@@ 47
..@@ 46
o? 45
ola 45
Pen@@ 43
E 43
opl@@ 42
X 41
iti 41
ino 39
razi@@ 39
does@@ 39
G 39
gover@@ 39
co, 39
“@@ 38
ico 38
:@@ 38
ra, 38
N 37
L 37
sar@@ 37
cc@@ 37
v 36
una 36
mili@@ 35
ata 35
” 34
che 33
li 32
betwe@@ 32
U 32
nolo@@ 32
ra. 30
La 29
ora 29
ini 29
tut@@ 29
ario 28
ato 28
ari 27
fare 27
ro, 26
co. 26
gran@@ 25
ani 25
Y 25
ou 24
ica, 24
ura 24
senti@@ 24
va 24
mo 24
ca 23
dal 23
perc@@ 23
ali 23
F 23
+ 23
uno 23
velo@@ 22
ica. 22
azz@@ 22
altr@@ 22
H 21
Tran@@ 21
_@@ 21
co 21
[ 21
í@@ 20
ello 20
á@@ 19
sa 19
lo 19
ati 19
Sub@@ 18
ã@@ 18
fon@@ 18
#@@ 18
Q 17
fatt@@ 17
@@@ 17
ç@@ 17
solo 17
ito 17
tto 16
é 16
ro. 15
lavor@@ 15
sta 15
legg@@ 15
ano. 14
ori 14
—@@ 14
ogg@@ 14
pes@@ 14
 @@ 14
% 14
mi 14
ede 14
etti 13
si 13
d'@@ 13
Ed 13
/ 13
zza 13
Quest@@ 13
= 12
… 12
etti@@ 12
esse 12
osc@@ 12
ano, 11
ando 11
ö@@ 11
guard@@ 11
muc@@ 11
ali, 11
j 10
cose 10
ono 10
vo 10
titles 10
non 9
nell@@ 9
mia 9
– 9
W 9
blem@@ 9
) 9
Z 9
dove 8
+@@ 8
chi 8
ci 8
ei 8
po 8
atti@@ 8
capi@@ 8
ti 8
aggi@@ 8
gia 7
ali. 7
che, 7
è@@ 7
oro 7
dov@@ 7
ato, 6
J 6
Le 6
ó@@ 6
si, 6
lo. 6
". 6
ü@@ 6
rius@@ 5
’ 5
oni 5
avo 5
ava 5
agli@@ 5
l'@@ 5
sopr@@ 5
ñ@@ 5
fa 5
anza 5
Cos@@ 5
000 5
Il 5
cresc@@ 4
vi 4
ato. 4
cerv@@ 4
vidu@@ 4
á 4
della 4
eri 4
azi@@ 4
ricer@@ 4
ø@@ 4
Tut@@ 4
อ@@ 4
Per 4
‘@@ 4
ti, 4
amo 4
=@@ 3
endo 3
etto 3
_ 3
–@@ 3
po. 3
(@@ 3
ento 3
po, 3
uro 3
dell@@ 3
dire 3
ù 3
^ 3
circa 3
svi@@ 3
fond@@ 3
  3
oi 3
L'@@ 3
eva 3
esi 3
si. 3
enzi@@ 3
ante 3
ä@@ 3
anche 3
enza 3
^@@ 2
asi 2
anti 2
anzi@@ 2
ć@@ 2
giu@@ 2
Ma 2
quel 2
à 2
ร@@ 2
่@@ 2
ย@@ 2
ó 2
ï@@ 2
abbi@@ 2
impar@@ 2
chio 2
amento 2
anto 2
vu@@ 2
ente 2
* 2
indi 2
dav@@ 2
sap@@ 2
qui 2
²@@ 2
ë@@ 2
€@@ 1
indi, 1
Non 1
sull@@ 1
́@@ 1
tempo 1
…@@ 1
avere 1
parl@@ 1
ø 1
√@@ 1
±@@ 1
sare@@ 1
alla 1
dell'@@ 1
olo 1
uti 1
í 1
bamb@@ 1
Grazi@@ 1
primo 1
â@@ 1
all'@@ 1
glio 1
¡@@ 1
mio 1
送@@ 1
你@@ 1
葱 1
ê@@ 1
ï 1
ppo 1
essa 1
# 1
enti 1
ione 1
Una 1
segu@@ 1
É@@ 1
”@@ 1
ć 1
ché 1
è 1
@@ 1
@@ 1
sto 1
Se 1
igli@@ 1
à@@ 1
pi 1
c'@@ 1
evo 1
