a 59128
di 58698
e 56839
che 47099
i 39346
o 29794
la 28366
un 26123
è 25397
il 24822
in 24357
are 23262
per 20225
s@@ 18405
i@@ 17880
una 17303
t@@ 16919
e, 16176
in@@ 16118
ri@@ 16001
a, 15714
non 15683
a. 15450
le 15336
o@@ 15113
ato 14892
e. 14678
si 14593
ar@@ 14424
, 14413
or@@ 13827
e@@ 13634
o, 13146
di@@ 13142
. 13057
d@@ 12682
at@@ 12321
er@@ 12289
o. 12190
c@@ 11859
av@@ 11779
b@@ 11701
l'@@ 11504
da 11445
st@@ 11399
g@@ 11272
sono 11228
E 11150
m@@ 11009
r@@ 10886
vi@@ 10813
an@@ 10758
pi@@ 10548
f@@ 10548
es@@ 10463
p@@ 10409
to 10395
v@@ 10310
i, 10222
u@@ 10162
i. 10029
del 9592
re@@ 9552
ano 9298
se 9288
come 9105
gi@@ 9095
so 9075
con 9070
ci@@ 9035
più 8936
ere 8898
S@@ 8853
a@@ 8766
en@@ 8379
et@@ 8375
de@@ 8344
ma 8325
si@@ 8203
"@@ 8199
n@@ 7995
it@@ 7986
ci 7961
ic@@ 7912
C@@ 7896
l@@ 7883
mo@@ 7836
am@@ 7834
al@@ 7833
on@@ 7731
della 7715
con@@ 7575
pro@@ 7368
questo 7322
mi 7283
qu@@ 7190
per@@ 7179
lo 7162
li@@ 6980
amo 6887
ale 6785
D@@ 6490
P@@ 6350
ha 6330
al 6227
chi@@ 6150
co@@ 6146
po@@ 6131
sc@@ 6107
as@@ 6098
te 5996
ità 5892
à 5857
ver@@ 5790
ent@@ 5783
: 5764
gli 5582
ol@@ 5577
amente 5530
nel 5509
ati 5505
im@@ 5446
ate 5445
A@@ 5432
un@@ 5408
ti@@ 5364
par@@ 5316
do 5297
su@@ 5274
M@@ 5264
era 5235
em@@ 5152
pre@@ 5136
est@@ 5085
ti 5065
us@@ 5023
dei 4977
ch@@ 4926
do@@ 4919
re 4854
O@@ 4810
azione 4797
sp@@ 4781
ho 4769
vol@@ 4722
mi@@ 4708
ando 4682
Ma 4654
delle 4643
ica 4639
ono 4626
for@@ 4616
fi@@ 4603
ore 4539
ro@@ 4534
ut@@ 4525
N@@ 4496
so@@ 4457
vi 4447
zione 4428
pot@@ 4424
ra@@ 4396
-- 4395
molto 4382
cosa 4371
ag@@ 4325
com@@ 4300
abbiamo 4284
questa 4278
ett@@ 4274
col@@ 4274
se@@ 4254
alla 4248
ac@@ 4247
ter@@ 4233
zz@@ 4231
cui 4225
ap@@ 4216
att@@ 4175
B@@ 4175
z@@ 4158
man@@ 4149
uno 4148
? 4117
'@@ 4108
essere 4096
G@@ 4093
sol@@ 4075
E@@ 4030
perché 4012
el@@ 4004
ad@@ 3996
cre@@ 3987
anche 3974
cor@@ 3938
Non 3933
ata 3933
ori 3889
V@@ 3869
L@@ 3805
anno 3737
loro 3706
hanno 3674
dell'@@ 3593
no@@ 3586
quando 3582
ur@@ 3580
La 3580
ant@@ 3569
os@@ 3550
ec@@ 3538
1@@ 3491
T@@ 3483
ne 3449
ot@@ 3409
mo 3381
ete 3377
solo 3352
su 3338
ante 3336
bi@@ 3334
zi@@ 3334
ric@@ 3331
and@@ 3325
ai 3308
fare 3308
ra 3296
all@@ 3286
dic@@ 3257
ò 3256
persone 3252
ali 3222
sta 3221
ev@@ 3208
un'@@ 3205
io 3202
ente 3201
ad 3199
Il 3184
ess@@ 3175
ori@@ 3125
enza 3118
port@@ 3112
li 3104
min@@ 3088
ell@@ 3086
tu@@ 3080
inter@@ 3063
quello 3040
F@@ 3027
der@@ 3023
ist@@ 3021
far@@ 2989
ment@@ 2986
pen@@ 2942
pa@@ 2925
I@@ 2913
ari@@ 2884
tutto 2872
ven@@ 2866
Qu@@ 2848
ta 2837
tutti 2809
R@@ 2775
siamo 2769
nella 2768
ro 2757
to@@ 2755
endo 2755
met@@ 2755
de 2749
ve@@ 2737
modo 2725
così 2709
H@@ 2709
ma@@ 2683
gli@@ 2678
ico 2673
h@@ 2663
pens@@ 2662
ll@@ 2652
va 2643
lo@@ 2635
cos@@ 2631
lu@@ 2623
mon@@ 2621
sia 2613
zion@@ 2607
enz@@ 2603
is@@ 2602
ser@@ 2587
all'@@ 2571
car@@ 2569
mia 2567
questi 2540
dov@@ 2519
anni 2515
gra@@ 2514
mio 2513
str@@ 2512
queste 2510
me 2497
tiv@@ 2496
acc@@ 2476
fic@@ 2459
pri@@ 2457
tr@@ 2434
fatto 2433
ed 2424
etto 2417
tt@@ 2407
ing@@ 2407
ov@@ 2402
cer@@ 2398
cont@@ 2395
ed@@ 2395
ciò 2392
uto 2371
fin@@ 2371
pr@@ 2371
ament@@ 2365
stato 2362
oc@@ 2360
sap@@ 2334
ini 2316
le@@ 2315
diver@@ 2312
ora 2312
ero 2312
ast@@ 2304
te@@ 2304
chi 2301
gu@@ 2300
fer@@ 2298
È 2290
br@@ 2288
om@@ 2284
er 2264
dis@@ 2256
-@@ 2253
Questo 2253
cas@@ 2250
esso 2249
eg@@ 2246
cose 2223
sione 2199
alle 2175
ale. 2169
parte 2167
enti 2162
ino 2160
ento 2147
anti 2147
ati@@ 2145
pos@@ 2129
ni@@ 2128
no 2127
." 2106
ris@@ 2096
sci@@ 2096
qual@@ 2092
person@@ 2086
alt@@ 2081
può 2073
cambi@@ 2069
rit@@ 2066
migli@@ 2063
due 2061
gn@@ 2054
cent@@ 2053
bu@@ 2052
prima 2051
ogni 2043
In 2025
gen@@ 2008
ello 2008
lavor@@ 1997
inizi@@ 1992
do. 1992
dal 1980
ul@@ 1974
int@@ 1972
oi 1972
succ@@ 1963
do, 1962
parl@@ 1960
tut@@ 1936
mondo 1929
evo 1927
tra 1926
ve 1924
ale, 1915
c'è 1911
ava 1888
ina 1881
Quindi 1876
nuov@@ 1872
vit@@ 1869
sto 1867
mol@@ 1867
ne@@ 1852
me@@ 1852
- 1832
sul 1820
ura 1820
fac@@ 1816
degli 1816
tto 1809
sco@@ 1809
quest@@ 1798
ì 1796
k@@ 1794
mer@@ 1785
dove 1784
trov@@ 1782
gh@@ 1780
sulla 1774
zioni 1768
chiam@@ 1767
ire 1765
ari 1758
azioni 1757
pol@@ 1748
ine 1743
Se 1740
ra, 1740
are. 1737
ten@@ 1736
rebbe 1731
sion@@ 1730
mostr@@ 1729
import@@ 1723
op@@ 1717
ass@@ 1712
' 1699
bile 1698
poi 1698
noi 1692
cu@@ 1685
peri@@ 1684
aff@@ 1682
gia 1678
mente 1673
comun@@ 1669
fu@@ 1663
quel 1662
don@@ 1659
can@@ 1654
" 1653
so. 1653
qualcosa 1649
tre 1644
vo@@ 1640
anza 1636
pe@@ 1636
sa 1630
aggi@@ 1624
bamb@@ 1620
ici 1620
so, 1619
mai 1617
Cos@@ 1614
stra@@ 1613
divent@@ 1597
end@@ 1595
etti@@ 1593
amento 1591
L'@@ 1583
". 1581
tem@@ 1579
iamo 1578
sen@@ 1571
du@@ 1568
2@@ 1566
quella 1562
ab@@ 1561
diamo 1559
ato. 1558
J@@ 1551
♫ 1546
tras@@ 1545
vedere 1541
gente 1541
.@@ 1539
possiamo 1537
cam@@ 1532
picco@@ 1521
vita 1519
uman@@ 1518
almente 1511
il@@ 1511
anti@@ 1511
anz@@ 1509
meno 1507
eva 1505
coll@@ 1504
post@@ 1502
mento 1501
y@@ 1499
u 1497
ion@@ 1497
bil@@ 1496
ff@@ 1495
vo 1492
ancora 1488
E' 1478
dalla 1477
nostro 1477
po 1473
are, 1470
uc@@ 1470
re, 1463
co. 1458
rag@@ 1457
ca 1446
co, 1444
ce 1443
alizz@@ 1436
0@@ 1436
K@@ 1435
ici@@ 1421
ann@@ 1421
ato, 1420
segn@@ 1418
U@@ 1415
quanto 1412
Per 1411
erano 1411
eff@@ 1403
qui 1403
au@@ 1402
ita 1400
suo 1398
pres@@ 1397
ai@@ 1395
Sono 1395
go 1394
o? 1390
ole 1387
costru@@ 1384
I 1383
nostra 1380
glio 1379
grande 1379
fo@@ 1376
etti 1373
fa 1365
speci@@ 1363
azion@@ 1361
mat@@ 1361
evano 1354
davvero 1353
tro@@ 1350
bas@@ 1349
fon@@ 1345
gg@@ 1345
Questa 1336
co 1335
sua 1333
dur@@ 1328
... 1323
Ho 1320
ber@@ 1316
iti 1315
no, 1314
acci@@ 1313
atti@@ 1310
sal@@ 1304
altro 1299
abil@@ 1297
sempre 1293
um@@ 1292
dent@@ 1292
tecnolo@@ 1289
iti@@ 1288
semplic@@ 1288
d 1286
St@@ 1285
prend@@ 1285
facci@@ 1284
one 1282
l 1277
d'@@ 1276
pren@@ 1275
nell'@@ 1273
pass@@ 1271
In@@ 1270
t 1269
sic@@ 1269
Ci 1269
guar@@ 1266
contr@@ 1262
Abbiamo 1262
A 1262
rac@@ 1259
sull@@ 1258
nei 1256
da@@ 1255
sa@@ 1254
volta 1252
ved@@ 1251
pi 1250
esempi@@ 1246
sign@@ 1244
vostr@@ 1243
no. 1241
essi@@ 1241
pu@@ 1241
enzi@@ 1240
sar@@ 1238
ben@@ 1236
asi 1235
possono 1235
azi@@ 1234
uti@@ 1232
guard@@ 1229
5@@ 1227
avere 1224
ito 1221
acqu@@ 1217
doman@@ 1216
e? 1214
diff@@ 1212
tempo 1208
aut@@ 1207
sti@@ 1205
comp@@ 1202
abb@@ 1202
senza 1200
mett@@ 1198
gran@@ 1191
pp@@ 1187
Grazi@@ 1183
inv@@ 1182
che, 1181
dire 1179
funzion@@ 1176
ren@@ 1176
olo 1173
citt@@ 1173
secon@@ 1171
ola 1168
Perché 1163
é 1161
ene 1161
tutte 1161
giu@@ 1160
ogg@@ 1158
stata 1157
Come 1156
nelle 1155
4@@ 1153
esi 1153
to, 1153
Le 1152
ssi@@ 1150
cell@@ 1149
proprio 1147
qualche 1147
00 1147
ragazz@@ 1144
pl@@ 1142
Si 1139
An@@ 1139
ali@@ 1139
cerc@@ 1139
problem@@ 1139
aggio 1139
nostri 1134
mag@@ 1134
W@@ 1133
quindi 1133
prov@@ 1132
dopo 1128
ite 1126
rei 1126
tor@@ 1122
bo@@ 1120
ulti@@ 1120
avo 1119
ort@@ 1118
cap@@ 1117
esse 1117
gener@@ 1114
avano 1114
agli@@ 1112
igli@@ 1111
altri 1106
ra. 1106
3@@ 1106
interess@@ 1103
idea 1096
asp@@ 1091
ide@@ 1090
senti@@ 1087
zza 1081
voi 1080
po' 1079
cominci@@ 1078
on 1075
ani 1075
are@@ 1074
tratt@@ 1074
po, 1071
cin@@ 1067
gono 1065
molti 1061
rest@@ 1061
spi@@ 1060
Mi 1057
mac@@ 1055
tipo 1054
ei 1051
tur@@ 1051
?" 1049
5 1047
dere 1045
ità. 1044
negli 1044
viv@@ 1043
Quando 1042
deci@@ 1041
quell@@ 1040
nu@@ 1039
fam@@ 1035
por@@ 1035
ru@@ 1031
sistema 1030
an 1027
go@@ 1026
segu@@ 1026
arriv@@ 1026
uom@@ 1021
e: 1016
ia 1014
mor@@ 1011
TED 1010
colo@@ 1008
aiut@@ 1008
mar@@ 1004
'è 1001
svilu@@ 1001
medi@@ 998
present@@ 994
emente 994
h, 994
agli 993
tra@@ 992
nat@@ 992
lavoro 989
ran@@ 988
Ed 987
8@@ 987
serv@@ 987
arti@@ 986
unque 985
mal@@ 982
pubbl@@ 982
essi 980
viene 979
and 978
storia 976
anto 976
sost@@ 975
soci@@ 967
remmo 967
ir@@ 964
uro@@ 964
lun@@ 962
ese 960
amente, 959
bisogno 956
essa 954
ambi@@ 951
mili@@ 949
altra 947
dall'@@ 947
sembr@@ 947
cerv@@ 946
inci@@ 945
ness@@ 944
a? 944
o: 943
impar@@ 943
ricer@@ 942
circa 941
gr@@ 940
inf@@ 936
maggi@@ 936
condi@@ 936
loc@@ 935
cost@@ 934
el 932
ì, 931
indi@@ 928
mus@@ 927
stesso 926
enti@@ 925
sit@@ 924
attraver@@ 924
s 922
vent@@ 921
proc@@ 920
fat@@ 919
altre 918
ità, 917
ener@@ 915
Quest@@ 913
punto 913
val@@ 912
000 912
eri 910
ron@@ 910
ali, 907
num@@ 907
form@@ 906
zzo 906
Un 905
infor@@ 905
dete 903
à, 903
w@@ 902
qualc@@ 902
stru@@ 901
mentre 899
na 898
Per@@ 898
fatt@@ 897
test@@ 895
evol@@ 894
m 892
continu@@ 891
ca@@ 890
n 890
rius@@ 890
id@@ 889
dati 889
All@@ 888
scri@@ 888
cono 887
ro. 887
reg@@ 886
ali. 886
og@@ 884
men@@ 882
anim@@ 881
ica. 881
y 880
fosse 880
vic@@ 877
zione. 875
ente. 874
cal@@ 874
azione. 873
9@@ 872
ì@@ 872
6@@ 867
disc@@ 867
pun@@ 866
stiamo 862
des@@ 862
aveva 861
problema 861
sor@@ 860
stori@@ 856
ica, 856
giorn@@ 855
uti 854
pag@@ 854
studi@@ 854
dello 853
miei 852
or 851
potete 850
bili@@ 850
ede 848
menti 848
pas@@ 846
vogli@@ 845
anni, 844
son@@ 843
gior@@ 842
lasci@@ 842
fine 841
mu@@ 840
immagin@@ 840
ano. 839
cresc@@ 839
dire@@ 839
visto 838
creare 838
legg@@ 835
fino 834
Tut@@ 833
re. 832
ele@@ 832
nostre 832
0 832
ione 831
vu@@ 831
ario 830
grup@@ 830
abbi@@ 830
! 829
strut@@ 828
sopr@@ 827
azione, 825
plic@@ 825
Talk 824
7@@ 823
dist@@ 822
Ch@@ 822
parti@@ 821
scu@@ 820
app@@ 819
; 819
bell@@ 818
alcuni 817
eri@@ 817
à. 817
capire 816
stanno 815
gre@@ 814
ano, 811
immag@@ 811
è@@ 808
ro, 807
po. 806
sul@@ 806
ti, 805
gioc@@ 805
possi@@ 804
lo. 803
quelle 803
ppo 802
Una 801
Subtitles 800
Transcript: 800
part@@ 799
fond@@ 799
itu@@ 798
sioni 796
fil@@ 796
realtà 796
ig@@ 795
sper@@ 792
Ecco 788
insiem@@ 788
econ@@ 787
uro 787
sarebbe 786
c'@@ 782
differ@@ 782
voglio 781
indi, 780
ante. 780
propri@@ 780
cat@@ 778
milioni 777
ere@@ 772
rebbero 772
fut@@ 771
primo 770
giorno 769
rat@@ 767
bili 766
if@@ 766
posto 765
anzi@@ 764
conosc@@ 763
iment@@ 761
ece 759
sist@@ 759
chio 758
Pen@@ 757
edi@@ 757
si. 756
pes@@ 756
controll@@ 754
spon@@ 753
si, 752
atter@@ 751
cl@@ 750
bbiamo 746
termin@@ 745
abor@@ 742
super@@ 740
itt@@ 739
ill@@ 738
capi@@ 737
que 737
ace 730
19@@ 729
ob@@ 724
prob@@ 724
ific@@ 724
dav@@ 722
Be@@ 721
bar@@ 720
lin@@ 717
univer@@ 715
fl@@ 714
med@@ 708
leg@@ 707
luc@@ 703
consi@@ 702
ce@@ 697
inc@@ 694
Al@@ 694
to. 692
a: 691
occu@@ 687
dev@@ 685
nell@@ 681
alcun@@ 680
ativ@@ 678
attr@@ 677
ini@@ 674
é@@ 673
liv@@ 669
capac@@ 668
% 666
possibil@@ 661
ord@@ 659
10 654
ang@@ 652
materi@@ 650
rel@@ 650
Y@@ 646
k 645
caus@@ 644
stu@@ 642
program@@ 641
far 641
rap@@ 640
complet@@ 632
amp@@ 630
lav@@ 630
fron@@ 629
tto@@ 628
not@@ 627
ù@@ 626
ove 626
desi@@ 621
sch@@ 620
gett@@ 620
azz@@ 617
en 611
bbe 610
incredi@@ 608
ò@@ 607
org@@ 606
20@@ 605
2 603
sistem@@ 602
ate, 602
h 602
oper@@ 599
dat@@ 594
organi@@ 593
atu@@ 590
fel@@ 586
Di@@ 585
cir@@ 583
societ@@ 581
vide@@ 581
ani@@ 579
glob@@ 579
polit@@ 576
olo@@ 576
fos@@ 576
ordin@@ 575
state 575
lim@@ 574
Con@@ 574
’@@ 572
cul@@ 572
seri@@ 570
compl@@ 558
nor@@ 556
stri@@ 555
oni 553
gni 553
Un@@ 545
Afric@@ 540
sem@@ 539
he 538
cri@@ 537
ner@@ 536
k, 536
fort@@ 532
net@@ 530
de. 529
art@@ 527
intell@@ 524
nec@@ 522
qui@@ 519
ere, 517
dar@@ 516
50 515
tri@@ 515
x@@ 515
se, 514
let@@ 513
cc@@ 509
ate. 507
sim@@ 507
200@@ 505
bri@@ 505
amb@@ 502
ta@@ 501
Pro@@ 501
pic@@ 501
be@@ 501
me, 498
ss@@ 497
Su@@ 495
ù 493
,@@ 491
4 490
alc@@ 489
fre@@ 487
20 486
vero 485
prof@@ 484
robo@@ 478
las@@ 477
bre@@ 477
ram@@ 475
den@@ 474
Ri@@ 473
dell@@ 473
ute 472
lan@@ 472
cit@@ 471
de, 471
mas@@ 469
vir@@ 469
student@@ 468
doll@@ 467
tal@@ 467
oo@@ 464
sin@@ 462
gno 457
defin@@ 456
osc@@ 452
ché 452
bl@@ 446
y, 443
mic@@ 443
3 443
viol@@ 437
oro 436
8 435
hi@@ 434
innov@@ 429
mem@@ 429
gover@@ 428
Indi@@ 428
anc@@ 425
non@@ 425
off@@ 424
ator@@ 423
30 423
fe@@ 418
Inter@@ 417
er, 416
question@@ 414
me. 414
j@@ 413
rec@@ 412
g 410
togra@@ 405
ement@@ 404
vers@@ 404
computer 402
ou@@ 394
TE@@ 394
6 392
imp@@ 392
sur@@ 391
indu@@ 388
New 388
biso@@ 388
sta@@ 387
s, 384
♪ 383
er. 375
uni@@ 372
sing@@ 372
individu@@ 372
cur@@ 372
lon@@ 370
ge@@ 368
aver@@ 367
economi@@ 367
th@@ 367
le. 366
ar 366
1 364
gin@@ 359
r 358
Unit@@ 357
p 355
as 354
riv@@ 354
sare@@ 350
bbero 350
Mar@@ 346
comput@@ 345
stre@@ 345
razi@@ 344
sh@@ 344
ture 343
biamo 341
mill@@ 341
k. 340
[@@ 339
7 336
gro@@ 335
d, 331
es 328
az@@ 325
olog@@ 324
ice 322
af@@ 321
s. 320
arch@@ 319
00@@ 318
realt@@ 315
est 313
fun@@ 311
..@@ 310
Ne@@ 310
respon@@ 307
rem@@ 305
ave 304
us 303
le, 299
tim@@ 298
y. 296
tec@@ 295
la@@ 294
we@@ 292
Americ@@ 291
ing 291
dollar@@ 290
O 289
educ@@ 284
ak@@ 280
b 280
ase 277
into 273
lev@@ 272
] 272
ile 271
d. 270
govern@@ 269
stor@@ 267
der 258
se. 258
bor@@ 257
9 254
pul@@ 254
spe@@ 251
am 248
ancor@@ 248
ose 247
asi@@ 247
Z@@ 242
lit@@ 242
ge 241
design@@ 239
pub@@ 238
one, 236
gn 234
ame 233
be 232
duc@@ 226
x 224
sm@@ 223
get@@ 222
ow@@ 220
tit@@ 212
!@@ 211
ative 211
à@@ 208
one. 205
tw@@ 198
velo@@ 198
Amer@@ 197
lar@@ 192
is 191
ue 188
fa@@ 188
on, 187
X@@ 187
perc@@ 187
esem@@ 187
son 186
over@@ 186
et 186
ph@@ 185
ex@@ 184
bac@@ 182
c 180
lat@@ 180
ità@@ 180
stre 176
ste@@ 175
ze 171
data 170
bra@@ 170
bus@@ 163
sub@@ 161
“@@ 160
S 160
produc@@ 158
natu@@ 156
time 156
%@@ 152
omi@@ 150
D 149
Th@@ 149
tre@@ 149
ki@@ 148
he@@ 146
up@@ 146
?@@ 146
– 146
our@@ 146
t. 146
bero 143
star@@ 142
contro@@ 142
V 141
comm@@ 138
t, 135
ess 134
C 130
eve 126
ey 125
," 123
ho@@ 122
Af@@ 122
ear@@ 121
f 121
sel@@ 119
gram@@ 119
ill 119
es, 118
So 118
ity 116
muc@@ 115
at 115
of 114
it 113
z 112
in, 112
ach@@ 111
ry 108
wit@@ 108
inform@@ 107
en, 107
contin@@ 106
on. 105
har@@ 105
enc@@ 104
° 104
shi@@ 104
wa@@ 103
L 102
oun@@ 102
ing, 101
ure 101
land@@ 101
ke 100
” 99
/@@ 99
lob@@ 99
wor@@ 98
all 98
e-@@ 97
es. 96
nov@@ 96
us, 95
The 95
ey@@ 94
ir 94
her@@ 90
”@@ 90
wi@@ 89
T 89
ick@@ 87
pre 86
incre@@ 84
more 82
ing. 81
ok 80
kin@@ 79
fir@@ 79
Q@@ 79
of@@ 78
We@@ 77
Wh@@ 76
use 76
war@@ 76
X 75
w 75
les 73
q@@ 71
ational 70
ter 70
]@@ 70
ong 70
our 67
nolo@@ 67
mark@@ 66
dy 65
age 64
ers 64
the 63
by 63
fro@@ 63
G 62
ever@@ 62
ss 62
ack 62
get 62
B 61
dre@@ 61
:@@ 60
&@@ 60
fri@@ 60
ause 60
eng@@ 58
tive 58
— 57
ation 57
v 56
st 56
ch 56
ent 55
;@@ 55
opl@@ 55
altr@@ 55
cco 54
ld 54
's 54
’ 52
ance 52
it, 52
ain@@ 52
sai@@ 52
ans 51
al. 49
al, 49
ther@@ 49
ver 49
U 49
plan@@ 49
M 49
ary 48
trans@@ 48
♫@@ 48
ast 47
R 46
up 46
ell 46
ke@@ 46
q 45
king 45
ow, 45
ood 44
pla@@ 44
It@@ 43
ans@@ 42
pt@@ 42
low@@ 42
work 42
my 42
back 42
plac@@ 40
th 39
ly 39
P 39
gh 39
ú 38
end 37
ion 37
ic 37
ence 37
svi@@ 36
«@@ 36
for 36
the@@ 35
litt@@ 35
ll 35
out@@ 34
ds 34
ful@@ 33
than 33
ut 32
,000 32
ks 32
ous@@ 32
K 31
sy@@ 31
@@@ 31
$@@ 31
É 30
even 30
ther 29
ant 29
tech@@ 28
od 28
put 28
N 28
it. 28
red 28
jec@@ 27
bet@@ 27
ts 27
rou@@ 26
tion 26
wat@@ 26
ow 26
ght 25
dow@@ 25
lear@@ 25
talk 25
… 25
á 24
coun@@ 24
ber 23
right 23
ome 23
is, 23
ation, 23
» 23
Ѐ 23
ves 22
ical 22
lif@@ 22
any@@ 22
ity, 22
jo@@ 22
#@@ 22
icul@@ 21
low 21
had 21
ild@@ 21
_@@ 21
now@@ 21
is. 20
sion 20
her 20
also 20
Tran@@ 20
ity. 19
F 19
á@@ 19
ed, 19
Y 19
wh@@ 19
@@ 19
bit 19
ation@@ 18
ating 18
ach 18
+@@ 17
ep 17
imag@@ 17
$ 17
ell, 17
show 17
í@@ 17
ble 16
loo@@ 16
H 16
hum@@ 16
insi@@ 15
tion@@ 15
ral 15
í 15
°@@ 15
 @@ 15
int 15
ment 14
act@@ 14
j 14
+ 14
ich 14
) 14
ou 14
»@@ 14
= 13
ó 13
ç@@ 13
ous 13
over 13
show@@ 13
stem@@ 13
read@@ 13
way 13
ye@@ 13
time, 12
ally 12
blem@@ 12
hav@@ 12
how 12
ust 12
ank 11
any 11
mov@@ 11
work@@ 11
reas@@ 11
chang@@ 11
ö@@ 11
we 10
=@@ 10
big 10
out 10
ght, 10
/ 9
Q 9
off 9
now 9
old 8
hand@@ 8
e's 8
ever 8
them@@ 8
gy 8
start@@ 8
ed. 8
ation. 8
hap@@ 8
ã@@ 8
ó@@ 8
Z 8
hel@@ 8
­@@ 8
own 7
able 7
lot 7
you@@ 7
commun@@ 7
ght@@ 7
ys 7
alk 7
ations 7
vidu@@ 7
its 7
´@@ 7
ings 7
day 7
see 6
act 6
J 6
lik@@ 6
Sub@@ 6
ly, 6
What 6
ñ@@ 6
she 6
You 6
W 6
ding 6
down 5
*@@ 5
was@@ 5
“ 5
(@@ 5
etter 5
res 5
try 5
ound 5
ø@@ 5
clo@@ 5
some 5
Now 5
È@@ 5
ould 5
ution@@ 5
ect 5
world 5
very 4
have 4
We 4
new 4
call@@ 4
อ@@ 4
with 4
from 4
that 4
can 4
made 4
struc@@ 4
under@@ 4
thing 4
als 3
¼ 3
think 3
—@@ 3
_ 3
know@@ 3
beli@@ 3
won@@ 3
` 3
will 3
this 3
look 3
It's 3
I'@@ 3
worl@@ 3
if 3
ded 3
ying 3
thing@@ 3
not 3
ated 3
where 3
technolo@@ 3
ü@@ 3
human 3
´ 3
ū@@ 3
life 3
can't 3
ning 3
call 3
ition@@ 3
you 3
was 3
your 2
each 2
ting 2
kind 2
happ@@ 2
It 2
thin@@ 2
²@@ 2
ć@@ 2
ful 2
grand@@ 2
most 2
ë@@ 2
ร@@ 2
่@@ 2
They 2
next 2
only 2
about 2
ú@@ 2
ely 2
This 2
exp@@ 2
º@@ 2
actu@@ 2
self 2
like 2
his 2
throu@@ 2
which 2
^ 2
ŧ@@ 2
thre@@ 2
ä@@ 2
every@@ 2
º 2
when 2
​@@ 2
ѐ 1
want 1
^@@ 1
€ 1
nex@@ 1
that, 1
take 1
know 1
through 1
what 1
might 1
them. 1
İ@@ 1
‘@@ 1
́@@ 1
sort 1
year@@ 1
comes 1
thou@@ 1
¥ 1
ย 1
ย@@ 1
body 1
ities 1
them 1
but 1
with@@ 1
cour@@ 1
got 1
want@@ 1
﻿@@ 1
kno@@ 1
part 1
wom@@ 1
« 1
first 1
other 1
If 1
Well, 1
–@@ 1
kes 1
pow@@ 1
ampl@@ 1
good 1
And 1
² 1
ʿ@@ 1
But 1
things 1
it's 1
say 1
ā@@ 1
system@@ 1
every 1
make 1
* 1
buil@@ 1
[ 1
ê@@ 1
ically 1
ï@@ 1
™ 1
â@@ 1
˚ 1
indi 1
Ó@@ 1
@ 1
other@@ 1
don't 1
© 1
start 1
É@@ 1
  1
happen@@ 1
`@@ 1
may 1
less 1
used 1
their 1
tell 1
n't 1
³@@ 1
did 1
¼@@ 1
Now, 1
self@@ 1
When 1
I'm 1
€@@ 1
ë 1
ople 1
…@@ 1
zed 1
